[PAD]
[UNK]
[CLS]
[SEP]
[MASK]
[SOS]
!
"
#
$
%
&
'
(
)
*
+
,
-
.
/
0
1
2
3
4
5
6
7
8
9
:
;
<
=
>
?
@
A
B
C
D
E
F
G
H
I
J
K
L
M
N
O
P
Q
R
S
T
U
V
W
X
Y
Z
[
\
]
^
_
`
a
b
c
d
e
f
g
h
i
j
k
l
m
n
o
p
q
r
s
t
u
v
w
x
y
z
|
~
£
¥
§
¨
«
¬
®
°
±
²
³
´
µ
·
¹
º
»
¼
¾
Á
Â
Å
Æ
Ç
É
Î
Ñ
Ó
Ô
Õ
Ö
×
Ø
Ü
Þ
à
á
â
ã
ä
å
æ
ç
è
é
ê
ë
ì
í
î
ï
ð
ñ
ò
ó
ô
ö
÷
ø
ù
ú
û
ü
ý
ā
ă
ą
Ć
ć
Č
č
Đ
ē
ě
ğ
ī
ĭ
İ
ı
Ł
ł
ń
Ō
ō
ŏ
ő
ř
Ś
Ş
ş
Š
š
ũ
ū
Ŭ
ů
ž
ơ
ư
ǎ
ǐ
ǒ
ǔ
ǫ
ǽ
ț
ɾ
ʻ
ˈ
ː
˚
̊
Δ
Λ
Ο
Π
Τ
Ω
α
β
γ
δ
θ
μ
К
М
С
Э
а
й
н
о
р
с
т
ё
Қ
ᝧ
Ḫ
ṇ
ṣ
ạ
ả
ầ
ậ
ặ
ẻ
ễ
ị
ọ
ỏ
ố
ồ
ổ
ỗ
ộ
ớ
ờ
ợ
ủ
ứ
ừ
ỳ
ỹ
‐
‑
–
—
―
‘
’
“
”
•
…
‧
‰
′
⁄
₁
₂
₃
₩
€
⃗
℃
℉
ℓ
№
™
⅓
⅔
Ⅰ
Ⅱ
Ⅲ
Ⅴ
Ⅵ
Ⅸ
Ⅹ
→
∕
∼
≡
①
ⓧ
■
△
○
★
☆
☎
♡
♥
➋
➌
➍
➎
➏
⼐
〇
〈
〉
《
》
「
」
『
』
い
う
か
し
つ
で
の
ま
も
り
ろ
゜
・
ㄱ
ㄷ
ㅁ
ㅡ
ㆍ
㉦
㎃
㎉
㎍
㎎
㎏
㎒
㎓
㎖
㎘
㎚
㎛
㎜
㎝
㎞
㎠
㎡
㎢
㎥
㎸
㎾
㎿
㏊
一
丁
三
上
丐
中
久
之
乐
乙
九
乞
乡
乳
亂
了
二
云
亡
交
享
京
人
仁
今
付
仙
令
份
伉
休
会
伯
低
佛
作
來
依
保
俱
倉
偉
傳
僧
儂
儷
元
先
光
兔
八
公
典
出
列
初
前
剣
剧
功
动
勝
北
十
午
卍
华
单
博
古
可
台
史
司
吉
吧
吾
命
和
唐
啞
國
園
圓
團
地
垠
城
報
場
壁
士
壬
声
壽
夏
外
夢
大
天
夷
女
如
妓
妾
娥
娱
婢
子
孔
孝
孫
學
安
室
寒
寧
对
小
就
尾
山
岩
岸
峰
島
川
州
巨
帝
平
年
度
廣
建
开
張
强
影
彼
征
後
德
心
必
志
快
思
性
恋
恩
息
情
愛
慧
慷
憑
成
战
戶
所
手
扬
承
报
拳
挑
掌
敏
敬
文
新
於
旗
日
旭
时
昇
明
易
春
是
显
時
晚
智
曲
書
曾
最
月
有
朗
杆
李
来
杰
東
松
极
林
染
梁
梅
棍
樓
欣
歌
歲
死
殉
殞
殯
殲
毅
母
民
氓
水
江
汽
沖
治
法
洞
派
流
浪
海
深
淵
渡
港
渾
湯
溪
滅
滴
漠
潔
灣
火
炫
無
然
熊
父
牛
物
猫
獎
玄
王
理
琴
瓚
生
産
田
甲
电
町
畵
疆
癒
白
着
睛
石
砂
社
神
祥
票
祭
禍
福
秘
稷
穎
立
納
結
經
網
緣
縣
繩
红
经
网
羊
美
義
習
老
耳
聖
聞
聾
肉
股
肩
腔
膀
臺
與
舞
节
芙
芳
英
茶
菅
菲
萌
萬
蔡
蘇
號
蛋
衆
行
街
襄
視
视
觴
記
話
說
調
講
謝
變
课
调
象
财
走
身
車
轉
车
辰
近
这
迷
逃
逢
進
逸
遊
運
都
酒
采
野
金
釜
釣
鍋
長
长
門
附
限
院
陳
陸
隱
雅
集
震
霖
靑
面
韓
頻
風
食
飮
香
馬
馮
鬼
魚
鷹
麵
黃
黒
點
鼓
齋
龍
龙
龜
蘭
連
李
ﬁ
ﬂ
️
＆
－
～
｢
｣
ﾎ
￦
##7
##4
##k
##g
##i
##r
##n
##e
##a
##t
##o
##u
##l
##y
##x
##p
##c
##b
##f
##s
##1
##V
##X
##Q
##v
##m
##h
##w
##d
##5
##0
##R
##F
##O
##9
##z
##N
##K
##C
##j
##♡
##D
##U
##S
##T
##G
##I
##P
##B
##A
##E
##3
##6
##2
##ℓ
##8
##q
##L
##㎢
##Z
##ù
##H
##㎡
##W
##Y
##M
##í
##ø
##J
##°
##é
##ê
##è
##㎥
##∼
##ö
##ñ
##ū
##ì
##ō
##ọ
##ü
##ě
##㎿
##★
##ş
##μ
##à
##゜
##ī
##️
##×
##ó
##ā
##á
##ä
##〇
##ǫ
##²
##š
##ć
##ç
##ﬂ
##ú
##µ
##ı
##ả
##ò
##ㆍ
##㎎
##ŏ
##´
##㎝
##Π
##Δ
##㎜
##ï
##㎍
##㎒
##ừ
##î
##û
##ń
##㏊
##∕
##ﬁ
##₁
##㎾
##ř
##ô
##も
##℃
##⅓
##ㄱ
##™
##®
##○
##㎸
##ë
##Ⅰ
##˚
##㎞
##→
##ỏ
##â
##ý
##ũ
##㎏
##⅔
##ố
##㎃
##ă
##㎘
##ǔ
##ł
##ị
##ﾎ
##Ü
##ứ
##ろ
##う
##し
##ã
##č
##ǐ
##ž
##㎉
##ǎ
##¬
##ğ
##É
##ồ
##±
##ổ
##㎖
##ặ
##⁄
##о
##с
##т
##а
##н
##й
##℉
##㎛
##ʻ
##ư
##ơ
##ậ
##⃗
##ˈ
##ɾ
##☆
##ð
##æ
##ầ
##ạ
##ộ
##Ø
##ů
##ē
##ễ
##ǒ
##ː
##ờ
##ő
##つ
##り
##Ⅱ
##Ω
##ą
##ṇ
##～
##Ο
##Λ
##С
##㎠
##Ô
##р
##ё
##ỳ
##ǽ
##ĭ
##₂
##㎓
##ṣ
##º
##Ⅲ
##≡
##Ó
##ỗ
##ț
##ủ
##₃
##Э
##К
##β
##Õ
##￦
##å
##ỹ
##ớ
##ẻ
##³
##ợ
##he
the
##on
##er
##in
##at
##re
##en
##an
##or
##ed
##es
of
##nd
##al
##ing
##it
in
##ar
##ion
to
##ou
##ic
and
##as
##is
##ent
##om
th
##il
##ec
##ro
##el
##ation
is
##st
##et
##id
##le
for
##ol
##ce
##ve
be
##ut
that
on
##ment
##ct
The
re
##ur
##ore
##ot
##ter
##ay
##ad
wh
##ly
##ong
##im
##ig
##ch
##am
##ir
##ver
st
it
as
##ill
pro
##ith
##ul
##th
con
##se
##ow
with
##un
##ect
su
ex
com
##ers
was
at
##est
are
##em
sh
an
by
##ge
##pp
##ies
you
##ear
##ial
##op
##all
##iv
will
##art
##res
##ort
##ity
Kore
fr
##ist
##ess
##ate
##us
al
##oc
##oo
##ain
he
ha
##ak
##ud
or
##her
ch
##ang
##fic
##um
In
##ant
##ac
##and
##ee
##ld
##ive
##nt
from
##os
comp
have
##ab
not
##iz
##igh
##ich
has
tr
##du
exp
which
ne
##ust
who
de
whe
Ch
##ure
pl
##if
res
##end
me
##age
##ice
inc
year
##ast
##ap
##ib
##ult
wor
##mp
##rou
sa
##ye
can
##ated
##ip
##over
##ance
this
##ary
##are
##ere
##gh
Korea
##act
##cc
pr
but
##ue
##ime
sp
cou
ab
##ry
##out
le
rec
Se
do
##fter
##ung
##ard
ad
It
##overn
##ous
##ase
man
##ition
##ark
##ans
##ident
en
##ag
##ire
part
dis
cont
##orm
said
se
##ight
##ome
shall
##ince
20
ag
##au
so
time
per
##per
##yeong
app
##lic
been
there
##ub
##ie
bec
##od
##ell
Korean
##ence
were
rel
##ost
##ae
##ber
ev
pre
##qu
##ational
##ions
un
##ther
##ign
pe
rep
##ood
##fer
out
##ations
work
##ould
we
after
imp
int
##our
Kim
##ake
offic
Th
##so
As
##overnment
##duct
##ople
##vel
##ame
##ine
##ik
##form
##ru
##lo
his
##mit
such
##ities
Pro
##ide
also
head
##air
##ens
##ff
people
##irst
##oll
when
##ual
Gyeong
att
compan
##ding
##ause
##ace
than
they
inv
more
their
##ical
##erv
##lud
##ree
##rt
all
if
us
##00
acc
act
##ely
##og
inter
first
about
cl
day
##one
up
##nder
hel
##ict
am
##iver
prov
##ected
reg
##ress
##ublic
##istr
##hed
cons
##gi
ind
##oin
##ook
##erson
sc
##ors
pol
##pt
##ass
gu
includ
##ade
##duc
##ish
supp
##ng
##anc
under
##ack
its
##ile
##mer
##ious
over
my
##ject
##ents
##ia
fin
Gyeonggi
##ning
##ach
new
##able
##ied
##rough
government
go
because
##oul
##aw
##ool
one
##enc
##ok
won
Com
te
sub
Seoul
invest
##der
mem
##mitt
Prov
bus
##ail
##ike
sec
loc
St
##oon
other
##ased
may
public
dr
##ating
##oint
##ative
##illion
where
through
##iness
##resident
dec
##ount
tw
##chool
partic
had
Min
##ater
product
##ond
person
##ert
##ory
##erm
Gu
##ough
##orth
##nc
stud
##old
##red
##row
mark
including
ro
##ink
201
##rop
last
##ite
##ound
sy
them
##ection
dif
high
This
mon
##iss
min
We
North
##ution
##velop
##ild
##gan
##sp
##hen
##now
##ep
oper
two
only
##onom
##ized
##ose
##irect
##ina
bet
fe
mo
official
due
support
##get
incre
##ruct
Un
##ular
##enter
your
like
comm
business
inst
He
sm
market
##av
##ific
count
##uring
##mittee
##stem
her
##und
##ters
pur
report
no
If
held
##ural
##abl
cr
serv
char
school
op
est
##elf
Province
##ivers
bu
Lee
local
meet
vis
pos
##ility
med
should
##ecial
companies
##round
##we
co
des
project
##ention
##ures
##conom
el
##su
know
National
develop
##hn
show
would
ann
say
month
##ise
##ks
##ven
##eration
There
dep
qu
system
##xt
rece
##reat
num
need
years
You
made
direct
add
##ments
##olog
##ffic
she
##ducation
car
del
plan
##bers
any
##agement
##ian
ar
##che
get
play
10
want
##ics
emp
into
many
br
str
##icle
##ates
##man
disc
##ited
##ob
fac
good
##ided
number
even
##ange
##ounc
##sib
perform
again
conc
##roup
order
##ween
##ouse
company
##ety
indust
##min
between
particip
##ization
team
##ience
Tr
##ower
##ju
make
##ording
##ollow
child
##resent
lead
gr
Art
##ily
##ax
##ally
##ize
##ord
##ese
##ason
mat
members
investig
President
prom
var
take
some
##ices
##gr
use
che
fam
ph
##ency
follow
##ble
##uc
resp
start
000
right
econom
##way
##ock
Park
since
think
Je
##tern
soc
##fore
##up
trans
##ife
conf
while
##ank
##inc
##port
##aking
##iew
well
##day
##ister
rele
cre
Act
##ital
requ
gen
Jap
##ren
Japan
##idents
##ings
organ
Wh
##urn
##ery
##lement
establ
##olit
each
##mb
##own
proc
Part
##iving
##ick
lar
cult
##echn
end
could
activ
fact
sur
##ward
##ared
det
term
##ful
ear
##ved
19
##istry
##ilities
here
##ission
main
ever
management
being
pay
On
special
bl
When
##ute
law
##ract
Al
##urre
fl
met
##olitan
don
##let
##ropolitan
##ministr
##outh
call
Sh
##ecess
##les
aut
##amp
grow
##ision
three
##ams
expected
next
prev
did
ass
during
China
rev
long
place
##ove
open
our
emplo
result
##ting
see
##rap
##wn
##tc
Met
related
ac
second
City
##artment
fore
##ind
necess
inform
art
eff
##wang
##ases
Party
before
Ministry
etc
##uation
##nam
point
##ants
##eral
##iversity
contin
students
meeting
design
various
interest
cor
most
Con
##its
##ives
Committee
##arm
group
Article
sal
##lease
##te
##ior
rem
polic
million
##rd
area
##oy
##hip
##ave
sit
##ather
##ancial
necessary
real
##airman
promot
pop
##blem
##rib
red
every
##ra
office
enter
##ft
how
problem
prof
ret
rest
aff
ent
police
##uch
##ew
now
just
##ret
same
bel
Do
ve
##ficult
look
const
set
difficult
##por
ref
what
case
##iend
##ving
world
help
Acc
##alth
##ries
##lear
own
lot
##pr
education
##aining
impro
South
residents
days
visit
##echnolog
exc
process
##ient
found
used
##cheon
adv
##med
differ
buil
opp
Metropolitan
event
##par
sign
without
##uss
small
##ived
possib
##raph
##overnor
pass
house
##earch
An
30
service
way
refer
products
tax
Government
##urrent
##read
former
##ium
center
##ained
##ished
Ind
Cho
coll
wr
compet
around
job
##ional
back
young
##won
expl
##ruction
##iation
information
industry
dem
life
##ecut
exper
##uk
food
##airs
city
May
According
meas
##ck
ins
##ism
Center
##inance
Bus
bro
At
hear
##alk
##ense
##onment
him
##iod
##ten
wee
How
##ric
conduct
##abor
commun
Dae
development
fi
##aj
##istrict
import
##vir
facilities
##other
hand
##omen
ra
##osp
Gang
##ider
announc
Re
##imes
investigation
##ner
saying
par
##ief
children
##ival
Hy
##ended
country
##ale
within
following
##vironment
Su
im
addition
level
much
##oth
##ork
reason
friend
Moon
administr
increase
##ently
##ually
##gy
care
##osed
##ope
ca
##ised
period
stre
win
##ems
billion
##ump
ob
##cept
fil
home
Offic
large
performance
party
##ont
class
sel
president
saf
announced
##echnology
social
among
instit
University
##ances
national
four
Ye
##ty
15
off
bo
rate
complet
against
##ath
stand
##incial
inf
very
Che
price
Jung
##ying
col
reported
##atic
sum
fire
Dong
ask
tot
establish
current
referred
contro
##orts
##used
##here
##als
##yung
##gest
old
pres
family
##ene
##ged
##ajor
##ached
chang
week
cost
##uture
respon
susp
##udget
total
Pr
financial
11
request
come
based
intro
power
200
economic
check
##mission
whether
##aly
##ts
operation
##ilit
##hing
air
down
def
effect
war
pros
feel
US
##ages
12
Jae
run
fund
water
tra
##ustom
room
##ists
##eep
id
##agraph
##ivate
sol
going
Han
disp
coop
cap
##ri
building
progr
become
Governor
##ness
hour
attention
though
##semb
##cent
cases
budget
foreign
policy
major
mus
officials
##yp
##ever
working
##ai
eas
Man
##led
state
##ination
prot
##ember
##ov
does
New
##entr
charge
book
##uty
##ey
applic
those
ext
future
hard
intern
particular
account
##sembly
Is
##stit
occ
employ
##iety
Ex
implement
##eld
ful
construction
elect
##ern
change
De
amount
sent
represent
form
sl
##alf
##itiz
health
##san
means
big
sk
Gwang
different
consider
##though
member
##io
percent
##ntil
Sp
##vers
ser
improve
##lex
custom
##ony
##ending
Minister
past
##hor
##ately
##ising
Mar
toget
together
##iven
##akes
##reen
##ified
post
##ix
##ively
Ord
situation
mid
##oney
environment
aud
Intern
##ature
measures
##ification
low
continu
Office
strong
allow
great
##gency
committee
Busan
happ
##line
ll
##tle
jud
##ired
##omm
activities
issu
##ocr
##estival
mod
tour
Ordinance
best
neg
private
pat
received
prep
For
Please
sales
##ug
dom
##ron
pursu
possible
##inafter
provide
##urity
countries
general
##bal
hereinafter
##ata
Sams
##elfare
Sec
##land
site
##iting
Assembly
dam
cond
That
val
Japanese
Samsung
test
agree
##ines
##ier
18
spe
matters
##ulation
##stand
confir
areas
making
##itions
tre
director
##iol
culture
100
women
cert
##ultural
##ilitary
##utes
sim
typ
##ody
bas
hum
##vant
lo
insp
##atch
fall
list
##lect
today
Chin
##ressed
demand
give
equ
using
##gal
money
crit
dong
until
##omet
subs
experience
game
important
profess
let
too
called
popular
Chinese
13
##ction
top
move
growth
store
five
##ospital
##hes
My
Counc
technology
half
Council
expand
##ecution
these
free
department
sing
able
##lobal
increased
put
Res
##aid
left
Ass
##ss
##hib
##itizens
workers
Ad
why
##augh
##crib
After
qual
Education
il
expens
present
##me
viol
##ceed
still
decided
lit
safety
data
##sue
##ars
##use
##gu
fun
##uclear
##estic
##aster
record
##rial
##arent
Chung
author
near
times
came
discuss
hope
land
projects
opin
then
Eng
hous
KR
analy
Serv
##tain
emer
province
Trump
field
Fr
hig
early
lear
##ociation
press
Dec
contract
consum
appro
##ird
KRW
What
Pol
hy
apply
Dem
took
rul
purp
results
Chairman
find
trad
div
##ined
lim
labor
pursuant
military
stat
Jong
##ructure
hol
##asing
polit
##inal
16
##wan
hist
return
released
manag
##eb
Although
entr
ur
media
##ets
##ocu
##je
mov
proper
Incheon
14
organiz
##pped
##ex
##ges
En
tem
name
paragraph
##duced
charact
ap
##ieve
attached
##den
##ivil
##lish
veh
short
##ons
Shin
expect
phot
exch
So
read
relevant
deliver
##osition
vol
However
flo
affairs
quest
prop
cultural
issue
docu
domestic
##hold
mater
chairman
Democr
economy
exam
install
investment
##ames
research
prevent
music
25
##ash
plans
lik
Instit
Cour
streng
##person
expert
citizens
##ains
##ption
foc
global
income
##pping
super
50
led
eval
Hong
front
Choi
Rep
must
##utions
appoint
##ards
##nel
relations
agreement
##dict
##joy
##ned
##ling
material
cer
##ins
corpor
film
Comp
vide
##ccess
##ces
Court
##cast
##ones
##ready
view
spec
##not
less
mor
Co
medical
##ried
##isting
##dle
enjoy
treat
full
road
Jun
hold
attract
##ension
##az
##ched
Dep
body
cand
##ger
court
They
soon
established
prosecution
##cement
season
##iet
went
park
services
hot
##ible
17
already
side
once
##yees
hours
success
provincial
##retary
##ides
purpose
##vey
purch
Can
Institute
No
##oor
Since
according
paid
vict
##oot
##urance
self
##airperson
regard
human
bre
##emony
months
##entral
expenses
Indust
receive
draw
mar
##aim
review
##yang
##less
appl
determ
line
Ju
parent
beg
cooperation
employees
Young
redu
talk
Lib
fail
consult
la
##ator
subject
District
##ortun
share
joint
av
sex
seems
##mitted
##work
Yang
##inary
concern
occur
living
ho
farm
hospital
program
distr
send
pain
##aek
conducted
please
explained
Yong
Jin
detail
create
participate
Am
##aken
selected
bur
cannot
Association
production
sect
subsid
Cheong
recently
reve
##fact
grad
training
prices
United
got
ceremony
district
Democratic
laun
Mayor
organizations
floor
##for
both
candid
morning
##ili
application
recomm
Sa
##hod
sever
##ead
##ises
exhib
payment
Wor
broad
civil
night
control
##irc
##sel
known
live
third
Service
previous
English
character
##orrow
##ted
canc
##ically
away
##app
agency
Form
buy
CE
along
##avor
Cor
quality
word
##aces
summit
love
##ences
24
turn
taking
##ple
representative
##oun
##reme
##ured
tal
dram
started
arr
competition
mean
understand
##izing
community
travel
##oh
election
became
trade
reveal
distrib
date
tar
visited
cour
Gwangju
sell
keep
continue
With
##orn
method
claim
##icles
##oss
administrative
welfare
coun
better
accident
##ivid
##ways
likely
late
critic
song
opening
separ
prescrib
administration
Where
Nam
##enior
Kang
net
##ference
international
##ify
##aur
World
##ves
##ulture
sold
##yeon
final
##itional
writ
##ored
##ication
##acher
School
another
asked
##illage
Commission
non
tell
pract
rights
##rug
leader
##ross
men
CEO
##aker
Air
somet
##rest
execut
video
##ering
trial
stage
organization
##ients
Even
March
added
things
circ
located
##ogn
40
Song
den
Pl
appear
regul
six
history
##ball
beh
works
21
negot
Ar
Be
problems
##pl
##itive
security
International
damage
Pe
clear
showed
confirmed
##ging
##nov
persons
employment
Group
orig
pict
##ech
Jeju
soo
wa
##atural
news
##idence
fine
##ends
contrib
Fin
##iding
parents
conn
household
survey
##imum
##iday
resol
##com
kind
caused
treatment
Eu
##ability
##seas
provided
began
27
attended
23
regular
delib
space
promote
Police
22
##side
card
##rast
spread
complex
2018
Just
##els
deb
schools
didn
Br
middle
bene
institutions
fre
light
##ury
bea
Reg
inspection
chief
strengt
sem
far
position
##urch
decision
opportun
camp
ille
recogn
ord
##ffer
players
base
##hern
responsib
##mun
eng
face
##atory
policies
##meric
region
##oice
Ge
Americ
restaur
fans
appe
festival
##cher
society
##ys
##epend
infl
##ories
watch
housing
individ
controvers
##ream
having
value
House
ris
movie
hit
participated
teacher
minutes
overseas
##sang
##arters
Russ
Sung
ruling
focus
story
ach
reduc
supply
Administr
bill
##buk
Apr
actively
changed
##thing
political
April
age
experts
mob
directly
##ats
join
pointed
##ctions
little
cent
increasing
##by
opposition
victim
role
Chang
lower
##ph
suffer
Seo
others
alle
Asian
thought
study
Jang
##lose
Bl
Sang
host
arrest
28
transport
##view
##istics
audit
key
cause
##illed
States
insurance
##self
miss
exchange
natural
June
facility
##erty
shar
match
##aged
funds
dev
vot
26
transfer
cle
nation
1st
friends
largest
conditions
completed
compl
individual
##aper
##angu
##ban
##irl
##eng
applied
entrust
prepare
Seung
additional
Public
jobs
existing
stock
##duce
later
Elect
July
invol
conven
industrial
Liberty
##fficient
Don
really
commission
raised
Sept
##aff
given
##ential
customers
Jeong
always
em
##verage
But
Le
personal
dise
broadcast
##ipment
leaders
##anch
##ring
##atives
##ession
block
traditional
##ental
prepar
Seong
express
revealed
Provincial
senior
promotion
Station
businesses
mom
sw
trip
Tae
events
smart
Or
mult
trillion
death
experi
##medi
materials
##adem
pus
ground
often
##irth
ban
screen
##ufact
predict
medium
ide
Ji
Yoon
emergency
Aff
sector
##rastructure
Sup
response
taken
##ources
##head
Econom
##ators
seen
leg
type
least
##ober
##ipt
attend
rather
lack
wage
sug
rank
higher
##ened
##ha
looking
Supreme
ener
Oct
becom
##int
volun
accept
basic
evaluation
award
signific
##ault
student
##erc
exhibition
##wer
##val
recent
advance
##emed
planning
Affairs
mess
##yo
compared
Fore
Sun
Jeon
eat
easy
Financial
operating
##gress
manufact
stay
possibility
begin
issues
September
##acy
##rope
##ues
##ilies
fem
Jan
##aily
negoti
Bank
Sc
Germ
Ab
never
##any
ant
Europe
benef
Hyun
bank
vac
Some
##orry
Trans
##quarters
While
##ening
cut
contact
##oring
fees
##road
langu
mother
respect
energy
introduced
costs
average
counc
##lege
##redit
Hyund
##erate
Then
council
illegal
##loy
decre
Hyundai
Kyung
brand
29
Gen
sho
phone
gun
sports
ago
##que
##ison
2nd
##ced
groups
repl
To
decl
trend
institution
##urther
currently
deal
dust
##lementary
##ape
something
##arter
Gyeongsang
ident
Yes
clean
Festival
Aug
comb
points
san
innov
developed
ans
families
Management
size
commer
goal
created
enough
makes
wind
##ilar
leave
##ronics
meaning
course
31
quick
hyun
opinions
##yu
##yc
growing
bat
She
accord
cur
significant
port
delay
controversy
round
break
cities
Department
trust
strate
active
officer
cover
tom
deg
##cial
Provided
prepared
##oman
rise
outside
##forcement
lawm
Gangwon
Med
words
accordance
immedi
establishment
October
##hest
enterpr
##uary
agric
Gangnam
##ald
##sc
##ague
##atis
2016
heat
Agency
interview
drink
leading
##lier
##po
yet
##encies
brok
documents
Direct
conference
ste
question
##ountain
##noon
close
items
professional
afternoon
needed
sized
Mr
operate
Land
opened
status
And
cal
##avy
youth
##akers
profit
offer
try
vehicle
reform
##anced
enc
##sis
##ects
written
vice
clos
announ
designated
online
Yeong
##ester
Viet
programs
scale
##velopment
target
analyz
opinion
suggest
##ians
expressed
capital
##ishing
efforts
##uted
##fort
Vietnam
##uge
temper
equipment
Corpor
##arant
##ware
photo
ye
Administration
starting
##just
Internet
Trade
pet
##ills
manager
respond
Ph
regulations
##jin
##enced
content
jin
station
getting
submit
continued
parties
similar
tomorrow
##omp
##rist
##ners
walk
passed
shows
female
##ocal
##otion
##inder
One
August
60
personnel
secretary
ship
tast
##wa
lect
sun
needs
##incip
holiday
relationship
nuclear
recru
mind
legal
##vest
Cl
belie
governments
##ample
strengthen
##dule
independ
excell
traffic
lives
happy
resident
cris
Bec
university
stop
Yoo
lib
Daegu
chairperson
##ervation
##ological
conflic
rain
language
##bo
collect
Health
improvement
##ground
denuclear
contents
Dis
##urs
minimum
staff
club
Electronics
purchase
register
electric
driving
model
sorry
January
##ude
bad
considered
acqu
step
##ender
Hwang
First
inj
si
authorities
ri
gre
told
lost
##ipl
sche
dist
eld
##bs
##ration
ahead
transportation
charges
2017
Justice
Soc
village
doll
Hall
single
standard
sexual
few
gave
##lus
changes
##ula
daily
further
unf
##vert
##elt
##osal
All
built
included
Prime
estate
educ
gl
reduce
mobile
believe
played
birth
crisis
Because
Transport
##empt
appointed
concert
Research
Director
influ
##icip
State
several
##ift
Now
Cons
mer
ec
December
princip
##yong
500
Christ
regional
heard
vehicles
Won
##mber
High
users
Inf
##yle
governor
##ovember
November
alone
fair
oil
Me
Supp
##ique
hall
##agn
scene
carry
Corporation
Feb
Let
wear
##irm
Special
fell
God
Fed
pub
TV
credit
famous
peace
ut
di
rice
Vice
seven
loss
schedule
poor
anim
serious
pen
##has
##aught
Sing
##aughter
parking
cel
action
favor
interested
division
Culture
ver
Sm
burden
terms
Rec
##ays
foot
operated
candidate
##rary
exceed
caus
hee
##iful
moment
##ncy
inside
specific
summer
certain
generation
risk
##istic
Labor
places
commercial
highest
##hedul
cars
schedul
Def
include
easily
progress
recommend
3rd
##gart
agencies
Development
regarding
denuclearization
color
woo
document
woman
questions
Cont
receiving
text
avail
##ral
immediately
##special
chan
##fully
central
speed
confirm
##specially
##indergart
corre
toward
slow
flow
forward
ball
unc
##hens
##onst
urban
##uties
issued
##aint
picture
opportunity
games
dest
carried
communication
reflect
##abilities
deliberation
##be
approval
heart
girl
##erning
parts
participation
emphas
aim
original
autom
drama
takes
property
apartment
4th
rap
##abled
excellent
union
bring
Local
##utiful
##book
patients
details
friendly
negotiations
Found
Island
father
available
Russia
##come
condition
Among
##ruary
February
Lot
disaster
ey
learning
199
sound
cold
concentr
done
professor
prescribed
202
restaurant
bar
plant
deep
trying
standards
Welfare
concerning
Support
goods
performances
executive
consumers
##vis
2019
tick
2015
duties
achieve
teams
prior
##astic
##artments
##rehens
green
wanted
celeb
quarter
considering
compens
actual
access
##ches
submitted
Fund
except
board
talks
fee
Security
##insula
##dong
##leep
mut
coming
##egr
proced
common
##ran
##heon
pack
worth
Si
holding
organized
college
academ
quickly
waste
determined
##jong
repor
gener
analysis
pressure
General
##igence
doing
Foundation
hon
presidential
protect
session
disapp
##mosp
dou
impact
produced
launch
restr
showing
elder
corporate
##useum
##bu
##orthern
hands
##ought
firm
##pite
##iff
##ops
abs
Prof
Emp
##go
implementation
recover
dead
Oh
ren
crime
atmosp
centers
##ormal
##isions
beautiful
reduced
pun
pot
univers
mention
suspic
70
minister
stores
King
##ne
Tour
##isher
eyes
##ton
metropolitan
households
distribution
Defense
300
answer
##ume
network
Gr
Wa
Sy
phys
##oms
disease
structure
counsel
Saf
##vention
People
Are
sea
##jeon
##iveness
drawing
adjust
##ports
##do
Il
limit
industries
series
Pre
Technology
entire
fig
estim
examination
displ
rapid
##ulated
Super
books
doesn
agricultural
train
matter
true
saw
##iversary
export
markets
integr
might
followed
sanctions
felt
fast
emb
##lim
##tainment
Na
church
seek
concerns
##loyment
Mot
ens
loan
##hood
required
delivery
tas
wife
encour
lif
Cup
Day
statement
##ocks
Jo
sense
advert
movement
dism
Te
sites
Prom
protection
exerc
##ropri
##urrency
##reed
Business
thing
10th
##care
temperature
Industrial
failed
assault
exclud
ordered
sett
learn
select
sure
drug
##earcher
caught
Profess
scheduled
Cultural
##cr
owners
forest
Bo
manage
hom
educational
comprehens
Ul
behind
raise
build
victims
guarant
Secretary
launched
20th
efficient
require
Son
Many
Chairperson
Lotte
installed
American
##ograph
message
Koreans
##rees
population
##uck
##aced
attack
difficulties
guid
enterprises
resources
Jeoll
ten
Mark
poll
interp
atmosphere
benefits
fourth
Agr
certific
Bu
incident
raising
Invest
direction
##endent
proceed
##ably
##ode
whole
##igation
##rant
Eun
ke
below
5th
##urning
Safety
Agric
sens
leav
7th
Chief
anniversary
search
bag
reality
Asia
deemed
object
participating
##icon
##ots
Ha
bit
wrong
duty
##irt
util
tried
Science
subpar
rat
##rate
subparagraph
commissioned
##atively
elderly
harm
prosecut
##ev
intention
grand
##atform
falling
annual
techn
shopping
restrict
##of
entrance
remark
##aries
weather
##oid
kindergart
positive
##ights
skin
##ously
Ahn
##ighb
instead
accounting
headquarters
##down
reduction
dream
##inated
accidents
itself
cell
houses
##cheong
entered
link
##CT
user
Promotion
##ansion
##osing
died
wall
##amed
frequ
intell
##aching
Environment
By
gas
comes
requested
##ulate
##ires
filed
##itude
appeared
cong
sale
Pyeong
participants
obs
earlier
rates
son
highly
release
eight
##ule
##icy
occurred
Kong
skills
Central
volunte
transact
##ishment
introduce
Baek
##ament
counter
dig
hearing
image
Germany
winter
Pen
symp
Foreign
##iqu
ways
mass
##ource
Blue
##athe
advant
##izes
universities
evidence
##ott
##ane
##stances
argu
evalu
##iers
player
##ronic
beginning
Year
Industry
35
webs
Commun
Donald
##oke
style
##esterday
yesterday
circum
smartph
stressed
box
Economic
sleep
##duction
score
involved
18th
##chol
cook
##like
##ibility
recruit
creating
exchang
owner
comfort
##rit
hotel
reasons
##selves
##aps
gather
##aign
disabled
competit
Lim
tourism
expansion
Tw
##allen
unique
visiting
degrees
prefer
address
anything
tel
warm
loans
##seong
turned
cancel
black
across
##hy
internal
Pros
agreed
Decree
##rol
writing
worked
prem
satis
##ley
suit
visitors
Infrastructure
intends
platform
defense
Head
whose
##ah
heavy
##aration
violence
secure
##isc
measure
variety
19th
environmental
example
neighb
chance
po
assess
correct
Des
limited
Finance
usually
Jose
Gun
11th
discl
##jeong
reading
theme
tit
enh
consid
##ology
posted
sharing
sud
sudden
##atures
Food
investigating
##gn
##intendent
ability
Why
basis
taste
80
Ki
##eter
2014
autonom
researcher
Suwon
##urities
##band
pers
12th
teachers
hur
implemented
##ledge
authority
safe
During
log
difference
dog
technolog
collection
delivered
proposed
popularity
discount
rout
##ining
tourists
##standing
##gle
track
properly
inspect
Professor
bal
Not
prevention
street
Sports
##my
aware
6th
##ees
produc
branch
Law
##rim
hosted
Go
force
solve
##atched
effects
York
display
Pa
govern
comprehensive
East
boy
blood
Chungcheong
Represent
reports
announcement
Aut
##rew
star
App
interpret
##fr
myeon
couldn
init
elementary
secret
##pon
cry
##iring
tempor
Stud
##erative
##aka
intens
##ares
convenience
publ
coach
creation
corporation
daughter
compensation
depos
ju
engine
complete
candidates
##olution
hwan
squ
giving
brother
15th
newly
customer
##ho
fight
##ship
unit
indic
##istration
##emor
criticized
website
liv
##erve
##othes
nature
section
##iconduct
8th
##OS
reven
Enforcement
ensure
##gent
##most
predicted
arrested
someone
criticism
##oud
banks
comput
##ality
proposal
Peninsula
campaign
calc
affili
responsibility
mach
providing
sung
yeon
##eg
##tained
signed
paper
conflict
says
moved
Kwon
buildings
physical
Da
ed
Women
selling
Sam
recognized
Hee
mentioned
##ropriate
dance
Count
rad
reached
pil
manufacturing
##idge
##unk
repe
returned
##ables
audience
##ffee
Child
##adium
##lia
Iran
especially
##athered
maintain
##pper
Yeon
innovation
recommended
These
gathered
overall
choo
notice
##wide
withd
fix
##ji
range
##ourn
hoon
elig
##arily
seok
actually
##amer
Daejeon
winning
simple
normal
becoming
##raw
function
##isl
heads
responsible
weak
classes
##liament
##BS
preparing
themselves
##ses
##CO
registration
deputy
From
27th
##fect
registered
SK
challen
running
shown
occup
Hye
Aust
21st
consideration
exact
swe
driver
Joseon
##inate
records
##ective
##sy
lic
clothes
Complex
white
practice
gradu
##urrently
consultation
relatively
Organ
##ipped
##met
communic
voice
##ecutive
entrusted
biggest
14th
sharp
hair
elections
airport
Federation
abroad
##ruption
contest
##cer
pick
Prosecut
scen
threat
Republic
Market
Ro
artists
suspected
idea
file
wait
kn
League
ess
brief
jur
9th
17th
nearby
##ooth
##ureau
Project
pm
Union
##anger
Hu
foundation
career
introduction
judic
gold
investors
convers
LG
##arding
##formation
prize
River
letter
##estern
taxi
protest
War
himself
2013
25th
supporting
##ternal
##room
lun
expectations
advantage
ter
##men
location
Tai
planned
13th
semiconduct
anti
closed
##chi
Hot
petition
rail
##ming
strategy
cross
includes
assist
adding
allowed
##tenance
Deputy
##lymp
##cript
everyone
Col
refund
sto
expanding
Olymp
successful
era
warrant
science
##iary
##bit
excess
cancer
imm
modern
grade
dismiss
playing
Woo
nothing
##isdict
separate
##bum
revital
suppl
served
becomes
gap
##ules
analyzed
respectively
Ever
Her
appointment
huge
##kay
jurisdict
mot
##rought
##osure
finding
fully
Social
##irit
goes
farmers
ratio
characteristics
agend
northern
vacation
Taiwan
har
zone
cat
28th
moving
histor
198
Singap
waiting
Singapore
##iance
##iplom
discover
prescribe
##sible
watching
surg
European
joined
sik
crim
##oses
reach
influence
Currently
entertainment
elected
actor
instruct
published
Thank
##usband
doct
provides
recorded
notify
designed
viewers
Hw
regions
lawmakers
surpr
fost
older
Airport
pit
coffee
belong
rising
meetings
reportedly
resolution
bought
focused
##rog
songs
er
flight
More
presented
Award
##ycle
Work
standing
honor
##light
26th
Hum
circumstances
monit
born
demonst
killed
mail
##iled
attempt
##BC
30th
Exp
camer
##ror
promoting
healthy
wide
selection
beauty
certificate
sil
prison
##nergy
Last
exports
determine
lawy
eye
extra
jurisdiction
separately
wave
withdraw
expanded
16th
Mus
specialized
Ho
improved
Pyong
Inter
Byung
tae
supported
Hospital
Most
##mir
looks
broke
Plan
dollars
surround
Hae
husband
##aging
thinking
##iec
##ashion
##eria
##uel
claimed
Per
formed
improving
##aints
fields
exercise
everything
advanced
##iency
minute
##stitution
rental
eligible
drop
##okes
medic
above
Our
##iles
door
replace
Wave
maintenance
competitiveness
##mar
investigate
wid
Sejong
superintendent
although
32
Indones
2012
counseling
retire
Village
provisions
longer
changing
23rd
Tourism
wonder
revision
smooth
##ampions
parliament
##itation
24th
almost
schol
##ull
spot
ge
continues
ded
earn
assets
##uth
depending
connection
marketing
wish
##ifying
##outhern
effective
judge
Austral
##lected
strength
agenda
knowledge
collected
din
esc
album
detailed
Move
Ins
photos
incon
earth
types
adop
appearance
##resh
delayed
Church
suffering
Regarding
negative
forced
diagn
pension
employee
Fair
factory
max
altern
diplom
technologies
stocks
conclud
gender
33
hop
completely
singer
inconven
##visory
Also
alleg
external
resc
AI
ple
ven
consumer
channel
##yn
##imb
causing
##order
serve
ran
Start
22nd
seats
soccer
concept
cash
infrastructure
Myung
table
caf
legisl
County
##udd
grant
##ugg
Port
mist
lawmaker
procedures
Life
mainly
allows
remarks
meal
seem
studying
despite
mountain
item
bond
##amb
broadcasting
consumption
lecture
principle
##sh
emphasized
strug
bab
talent
celebr
methods
##chain
snow
developing
discussion
Ear
##eed
gift
Face
units
superv
Employment
##olf
##thlet
Pyongyang
jun
meters
cool
compr
ordinary
weeks
conserv
##liminary
fishing
Canad
alleged
Cheon
screening
Movement
independence
##time
##ux
article
Soo
Div
greatly
Representative
Yu
cop
consecutive
Att
45
premium
disabilities
##aem
Peace
suc
##iture
spring
exclus
representatives
Rules
hye
Human
36
##enture
Ulsan
ep
##cho
##rupt
memor
performed
promoted
Small
##atically
strateg
Roh
##ivity
surgery
eating
##isted
KT
entering
choice
library
leaving
dramas
##struction
lawsu
ir
rent
##ush
nine
##de
shoot
yong
##ancing
scope
academic
##ield
succeed
remember
appeal
suffered
rapidly
resign
divided
paying
jung
lat
finished
mayor
speech
profits
##na
##tery
comment
##ears
Mal
surv
Net
produce
throughout
focusing
Gim
arts
SM
##ancy
movies
90
##rec
prec
estimated
accounts
taxes
Of
brought
Fire
county
Par
virt
activity
##icious
remaining
Ne
worried
weight
##ilding
restaurants
mis
tariff
pictures
opt
Brit
29th
multi
##ube
##ificial
background
dro
##umb
significantly
computer
stable
spirit
##load
installation
preparation
preliminary
Mountain
Under
##aring
crack
wants
##umn
##friend
Int
accomp
weap
Every
choose
vill
Jud
busy
push
Line
Enter
ticket
Comm
severe
Games
Pop
##estock
subsidies
Mex
opportunities
ranked
employed
Mexic
settlement
Mid
liter
permission
Division
Services
bott
monthly
receipt
Seok
managed
rating
town
Policy
Conf
Del
autonomous
shared
##acity
meaningful
adult
##itage
Facebook
rose
##ups
Dr
criminal
mix
##aith
arrived
contribute
source
avoid
Information
trou
##ido
renew
##iences
directors
speak
##unicip
volunt
Kaka
proport
Chun
cooperate
understanding
##itness
##ossible
appropriate
Ac
attending
Sat
electronic
Coop
coast
fresh
origin
34
recruitment
ele
weekend
kil
deleg
ing
acting
Hotel
fan
##ij
Motor
apartments
El
##seo
ups
America
vote
twice
Im
factors
##osis
##coming
Budd
filled
##han
##evit
exchanges
##ateg
thereof
shot
Sw
volunteer
achie
##oles
Tur
fish
soft
inevit
venue
email
guarantee
Table
##iate
forces
devices
bed
increases
Youth
nationwide
reb
ended
films
fashion
crow
##iced
remains
##gment
Inst
follows
##where
Agricultural
abuse
enhance
Through
dinner
feature
Recently
##ayer
seat
contains
impossible
write
male
##chang
revenue
##rote
nar
Heung
digital
Fam
reporters
##icken
advis
subway
##oyang
warning
repeated
aged
Geum
majority
athlet
limits
emot
##aft
##oration
##orough
##arb
stories
##char
executives
Did
##asters
##raz
categ
faith
reward
##fficiency
Former
path
##ids
democr
##reg
##TS
##unicipal
guest
leadership
wrote
master
vul
ingred
##usion
suggested
decide
unfair
journ
decline
rob
##igious
decrease
assessment
Exper
Museum
##NS
mission
believed
temporary
expects
contain
difficulty
capacity
volume
His
bi
blockchain
ill
judges
About
nom
##aud
newsp
danger
worker
##illing
roads
residential
wel
##vent
arch
##ression
calls
unable
quant
spend
catch
shop
double
concerned
Construction
##imate
guard
38
anyone
damaged
##sts
##ties
sentenced
Could
Hol
myself
processing
perfect
plants
tourist
potential
missing
diseases
leak
##yond
##fl
beyond
Pal
allegations
feeling
vulner
retirement
piec
##iated
Tod
Russian
ende
rooms
Mat
##hae
wearing
Bare
sister
named
index
calling
Sea
happened
Goyang
constit
punishment
revised
mouth
tim
shares
medicine
accused
farming
##iment
##osmet
asking
##ivic
listen
Joon
creat
debt
##ipping
expensive
figure
Insurance
solution
reservation
decreased
##iliar
sympt
mental
smartphone
thorough
Oper
command
##wh
ranking
association
explain
advertise
island
willing
##riage
victory
Due
##hoon
##asures
finally
Braz
Fil
quite
systems
crypt
Kakao
rein
transl
##0s
task
affected
stress
52
penal
conducting
intelligence
Bareun
Goo
crimes
violation
title
lawsuit
lived
##anks
scholars
fru
endeavor
counties
fixed
fal
orders
trees
judicial
##aemun
##oking
repair
attracting
semiconductor
band
##know
Economy
independent
IT
##raft
spent
foreigners
complaints
else
connect
apprec
ones
Therefore
discussions
##asion
##mical
patient
device
Today
Tax
##yr
400
France
2011
Energy
offices
drinking
Prosecutors
lunch
##ially
incur
##agers
officers
soldiers
core
Turk
je
runs
deposit
Organization
artificial
merch
symb
spons
capt
reducing
square
kept
Brazil
practical
discussed
pan
##ei
##cription
Doo
admission
touch
00
sn
##ocation
actors
bul
Spe
dow
##heast
baseball
stopped
behav
theater
meant
Securities
Geun
2010
##iable
Ste
learned
nice
abol
characters
Headquarters
pret
##organ
effort
##isheries
Af
Mi
functions
urgent
Christian
##asty
Unlike
Official
##uting
completion
talking
##arden
lots
explan
37
features
eco
amb
kinds
Consider
symbol
stab
license
excessive
Ui
##tes
drunk
suspect
checked
Grand
shock
Sub
interests
livestock
##mirae
##elong
flag
reflected
integrated
Ag
##oices
commemor
corres
hyd
briefing
mi
prosecutor
##ither
##hening
foods
ul
##allyu
baby
Your
cosmet
##aling
German
fif
react
thank
cryptoc
##erved
parliamentary
Person
pushed
couple
establishing
##hol
suspicion
sending
solid
resolve
camera
Bang
cloud
animal
##nes
##ightly
refuge
experiences
Middle
declaration
alternative
scored
currency
assign
accepted
younger
Team
dischar
handle
looked
judgment
Medical
##hwa
secured
laws
vulnerable
stead
worry
Nowon
suddenly
SNS
memory
applying
politics
kindergartens
##rogen
Considering
orient
favorite
doub
Joo
##aches
trustee
painting
Civil
convenient
animals
technical
interpreted
5G
65
##door
prob
suspended
distance
##urday
comments
Investment
##co
##enger
entry
injured
walking
immig
Saturday
truth
seemed
India
regulation
exist
Koreas
150
experienced
rules
Rights
teen
Children
accur
remain
excluded
conver
##af
##uri
manner
designation
corruption
electricity
gets
trading
##uce
sides
##ori
operator
reporter
##wor
accum
blue
Mond
announce
mart
##iors
##yun
historical
jointly
##wha
lawyer
presentation
Mong
downt
mag
museum
##taek
##aved
##ll
##elines
shut
outstanding
White
##ynasty
manip
southern
Hak
##lines
Friday
##ampionship
clearly
##gence
Indonesia
Green
Yi
guidance
flu
##omb
pleas
musical
##ios
regret
borrow
surrounding
mall
##hone
SME
Mon
gradually
innovative
sad
guide
##eo
introduc
Val
strengthening
vers
requires
discrim
centered
##AT
symptoms
##ero
rich
##assad
falls
##holders
bid
budgetary
window
hor
Sohn
##house
debate
balance
wook
##iverse
ult
##taining
false
BTS
marriage
stated
boo
ice
homes
Pyeongtaek
Imp
System
liqu
Academ
continuously
strongly
Malays
civic
psy
##rench
197
recommendation
doctor
reporting
stone
##iform
interesting
efficiency
listed
regardless
Bareunmirae
handed
defe
##itizen
departments
conservative
##aves
amend
News
##more
recovery
exem
overcome
fat
##ny
applicants
certification
criteria
tickets
##ellow
crowd
via
approved
ideas
Bar
Car
Pomp
##andal
##back
##engers
Pan
##IS
signs
dispute
committed
chicken
Sund
salary
##works
##iling
connected
disclosure
Family
Google
incurred
sentence
shape
upon
##ohol
Sum
##ius
Monday
Est
checking
West
2009
Arts
suspension
occurs
affiliated
golf
discipl
wood
##ilipp
Australia
##hab
Canada
##pass
fraud
eun
##cohol
thanks
consulting
##neung
rare
Forest
chul
okay
stars
aimed
strike
Philipp
encourage
tree
##mark
55
machine
mur
grounds
subparagraphs
phen
creative
damages
failure
transactions
gives
##itime
drawn
ingredients
Was
##faction
Sin
amid
meat
century
videos
Wed
##eor
joon
dark
Camp
##icro
distributed
route
tasks
enforcement
goals
Road
cryptocurrency
Soon
##pyeong
##ousand
surf
Girl
confidence
31st
39
##jected
composed
conversation
FT
flood
rescue
Film
roo
collabor
corporations
rural
Ryu
lose
plastic
##ommun
##place
destro
drive
arm
##eting
construct
##no
##ze
attracted
Olympics
forecast
flex
transaction
maximum
Mexico
phenomen
##aters
prosp
confident
Power
finance
dry
##heung
##yeo
buses
satisf
Cheonan
believes
earnest
##ulations
realize
save
uniform
childcare
##okesman
YouT
evening
loved
frequently
##iction
alcohol
bottom
witness
subsidize
lines
Tem
attitude
seeing
narrow
boost
essential
concluded
Hallyu
importance
putting
##icide
foster
##aug
multip
Ang
tired
constant
coord
eventually
##osy
models
placed
Gyeongnam
justice
owned
kindergarten
##mon
provision
Jeolla
latest
causes
priority
typhoon
finish
nurs
rum
##ecommun
menu
dial
rule
outdoor
battle
watched
Any
argued
42
##undred
2020
Constitution
Speaker
border
wages
##bed
obtain
French
##ulating
emerged
##dom
uses
minim
##isters
smoking
names
venture
##uff
Independ
Seongnam
awareness
achieved
depart
helped
levels
murder
##ogue
sinc
Innov
equipped
##eorological
##itect
married
##amples
operations
sometimes
fifth
##amework
##orage
haven
officially
43
donation
institute
Supervisory
remo
subjects
600
regime
Rule
##bok
2008
##emp
##nings
##hel
purchased
cooperative
values
Ko
courses
complaint
concentration
partners
minor
Corp
Win
Stadium
veget
birthday
Fl
ICT
Jes
##ohang
##ler
quot
accompan
Myeong
Would
benefit
cosmetics
throw
sectors
Dan
Paju
idol
##urers
upper
48
##wol
passion
scandal
Intell
wors
expend
passing
individuals
disciplinary
league
emerging
##assador
Pohang
San
##oong
setting
extended
happen
harass
Afric
##apt
41
##ask
Rev
clin
subscrib
##ography
##osystem
unification
invested
applications
drugs
Yun
##ications
degree
firms
pollution
appears
behavior
king
##lusion
suitable
Based
kyung
pled
grades
diplomatic
Tok
##aped
shipping
Stand
hospitals
spreading
tro
Strate
##itc
thousand
paint
jae
Analy
enjoyed
stations
figures
Mongol
districts
lectures
epis
Dynasty
##to
earthqu
Meteorological
##ommod
wild
ready
broken
anx
passengers
##ued
##isure
Cha
newspaper
performing
inconvenience
Kwang
holidays
British
advice
mixed
##uction
##ensive
debut
##king
##ky
##istan
expression
confirmation
comfortable
colors
transferred
carrying
hurt
Western
##km
execution
judged
lux
inqu
Global
bright
mostly
UN
bic
Jesus
##ara
treated
combined
challenge
Aud
##rep
forum
contracts
Pompeo
Ur
extent
Red
indict
Bae
exclusive
##ui
storage
##ips
invited
lowest
demanded
recognition
sweet
wed
injury
Gwan
##ari
actions
pattern
jump
sang
asp
tend
Star
Rel
Shim
strugg
##ym
accommod
explanation
##ney
44
##ris
notified
##iscal
##uration
complexes
sky
SMEs
Engine
##uggish
sou
meals
cast
##uations
flower
Yeou
enth
shops
affect
##issions
ign
north
Company
Society
ecosystem
designate
contribution
prin
Hanwha
customized
comprised
Delib
Bong
fuel
##nesday
drew
##onent
sluggish
Wednesday
anc
glass
delicious
maintained
claims
unve
allowing
##eli
##obile
flowers
deadline
consist
##going
Despite
journal
Xi
arrive
Free
feelings
Changwon
offered
##usi
fol
hundred
##aded
Sunday
sample
stra
conflicts
ang
unp
196
cooking
tight
##ef
##loom
suspicions
hydrogen
articles
negotiation
stance
topic
Love
formulate
Seocho
guidelines
##ishes
plays
statutes
sentiment
breat
municipal
##son
Command
Gal
Have
##vious
##idden
stabil
bureau
Gangneung
contributed
Music
signing
artist
obtained
Sol
##agon
voting
Yeouido
pra
##gang
suicide
competitive
YouTube
procedure
##ites
enthusi
Op
##craft
mount
naturally
shooting
sust
nearly
bonds
Cong
Sal
20s
fear
supports
##ilk
identified
concentrated
##useok
isn
coup
gain
##att
reorgan
Real
##exp
##board
##oph
proportion
75
pregn
reply
slightly
efficiently
Yongsan
Big
consc
fer
##illa
Commer
landsc
apolog
pushing
##erated
Prot
##woo
Philippines
careful
Motors
phenomenon
penalty
gate
canceled
neighbor
aid
Community
##acing
promised
Stre
franch
ruled
Yongin
Other
##oes
coal
##rene
subsidy
Buddh
diverse
##icated
declared
Academy
Chuseok
aging
enterprise
athletes
Over
covered
uncert
Apple
straight
height
ministry
operators
deter
Cre
##inces
Workers
meantime
Ansan
football
pitcher
49
Citizens
Mun
##ram
awarded
grown
involving
teenagers
either
##apers
managing
communicate
south
buying
inevitable
##orters
imposed
Stat
perman
Arab
cleaning
tests
Medium
mill
Unification
religious
successfully
shareholders
unus
psych
Lead
##cel
tourn
exposed
elim
Bio
cards
obl
closely
fighting
wedding
losing
##CTV
Good
Gold
Senior
transp
Marine
Innovation
CCTV
Thanks
Urban
Hous
rock
page
##urer
offering
Agriculture
##gg
##zz
studies
blind
telecommun
han
##ilater
pray
engaged
fiscal
##ray
##measures
##power
Tokyo
KB
spending
containing
actress
statistics
weapons
##AN
medal
##rat
tariffs
bath
##oi
Beij
##icultural
##apse
ki
booth
dropped
##ster
leisure
##ailand
##sa
stability
plane
cancell
monitoring
Thailand
evaluated
Care
##pa
prime
Until
ease
factor
helps
bills
cas
farms
entrustment
voices
begun
Hwase
Beijing
linked
beer
46
initial
pharm
funeral
hiring
supervision
gained
dece
army
losses
kick
mutual
Two
disposal
51
Only
ton
Decl
resolved
Vietnamese
Cap
Amid
##ager
novel
defend
Army
deliberate
##ching
Gyeongsangnam
##aza
##mas
Bureau
Past
burn
##utical
receives
version
Gyeongbuk
##etition
prohib
villages
Operation
examine
Happ
##ading
convention
Planning
47
swim
acts
brands
Map
lay
##ulum
##ectual
aband
Gangseo
Nak
powerful
##building
satisfaction
Mart
dishes
cheer
Administrative
drivers
Declaration
Job
##ma
payments
colon
kilomet
inaug
identity
answ
curric
Engineering
retail
College
Zone
blocked
Washing
carefully
preferential
sharply
easier
facing
litigation
desire
competent
hike
investments
Board
##izz
investigated
cloth
##ED
advertising
Temple
##encing
continuing
Gor
eth
##rants
##enary
charged
pretty
Ok
familiar
Yeo
##reprene
wake
Actor
fundament
sick
##bre
stick
publicly
##rier
simp
EU
fit
gaining
differences
Cheongju
asset
##isition
rejected
aircraft
bags
Mok
recip
nut
exempt
collaps
Housing
ped
smartphones
extension
Especially
Town
##SS
demands
Hwaseong
Washington
dispatched
##bon
##arr
##ama
refers
images
eup
##umed
provinces
sat
##gers
purchasing
quantity
unless
revolution
introducing
stadium
Tre
realized
Design
Strategy
Attention
downtown
Independence
##essed
spaces
responded
multiple
Vol
fly
tea
Regional
##aceutical
continuous
winner
pleasant
discrimination
amendment
turning
comply
securing
bigger
##odies
persp
##mitting
fled
hun
exceeded
reserv
Christmas
architect
expenditure
scholarship
dialogue
ment
Conc
semester
Smart
Matters
partner
2007
singing
prosecutors
Uz
detected
mistake
##assy
seeking
##het
capabilities
originally
arrang
surface
##arian
explos
Mad
joo
visits
hang
##eared
##atization
##abin
imag
singers
requirements
##asury
remin
whenever
imported
requests
legislation
##cont
##IN
##anam
vision
collapse
##etary
talked
53
citizen
tons
##ham
##itter
##asan
memorial
destroy
chat
##iration
wasn
reasonable
applicant
extreme
##ox
myung
returning
trends
seal
brib
Show
troops
Uzbe
KOS
merchants
gone
organize
mand
river
decor
colle
Water
gil
empty
combination
earthquake
firef
filming
agriculture
excluding
Street
plenary
recognize
category
##eted
whom
daycare
feed
researchers
oriented
leads
rally
peak
Mem
Pension
positions
handling
lease
##asure
garden
raw
strict
##eless
fort
recall
overl
##awei
patent
Uzbek
Four
replaced
greater
##hw
accel
happiness
cru
relief
dollar
##expected
Huawei
Pay
race
##ades
Industries
bak
##aming
Before
Malaysia
Military
kim
Three
allowances
dangerous
tournament
##holder
##uro
helping
chart
Chan
##ensus
incent
spokesman
unl
##ounter
starts
facts
Jeollanam
simply
veter
unemp
Those
passenger
##hem
Bridge
##ength
pilot
##elihood
nood
##bang
wins
##DA
##reams
marine
gathering
Self
tool
annually
Follow
##water
corner
dismissed
bow
situations
behalf
motor
shoes
knew
800
struct
##orney
subst
adults
Inc
listening
politic
specified
Northern
bird
kyu
forg
##outheast
beat
consent
##erce
unlike
ordinance
fill
Thurs
cafe
joy
Saud
curriculum
Each
heav
worse
blow
fierce
freely
steel
railway
revitalize
diss
Exc
package
crackdown
##vement
Tra
Experts
##uses
Bre
##IC
keen
##RA
##ello
charm
Will
bin
widely
juven
sand
forget
disappeared
brain
Jongno
##advant
defin
Fisheries
approach
pow
urged
Thursday
Nex
sook
regulatory
however
recording
usage
sustain
musc
dogs
Particip
Shinhan
54
code
residence
Express
Lt
cheol
disappear
##chon
replacement
Ant
mood
memories
Kia
bound
##otten
##change
disadvant
moon
yellow
##yal
##eck
##ondo
assembly
deems
describ
Spain
attendance
Home
remove
breaking
succeeded
map
composition
Starting
Nong
mel
Store
smile
thoughts
John
Look
awards
Sur
sac
conv
trouble
mal
Gi
chose
prompt
unusual
Har
Tong
##ocol
##enses
Ilbo
Earlier
dress
defic
Residents
dedicated
fruit
Elementary
Squ
commit
##acific
excav
cart
securities
professors
##inals
##urse
resist
##axy
30s
Hanoi
constitution
Saudi
##orter
feas
respondents
automatically
discovered
##ER
##enn
grew
views
consists
internet
diagnosis
##daemun
##ino
royal
buyers
kimchi
Koo
##ereaved
boat
certified
verification
frequent
votes
Disaster
Cooperation
Us
vess
communities
traveling
ride
##ucks
collecting
leaves
Kum
##idity
##mentia
upcoming
acquisition
adopted
Joint
relation
rom
shr
Gyeongsangbuk
Sim
af
purposes
flexible
transform
towards
Ltd
abandon
Bi
founded
Second
roll
##itor
enact
##quality
noise
illeg
steps
fake
vital
spl
relax
deterior
##wise
##EC
permanent
faster
56
Tel
underground
feels
yourself
195
prim
Mu
gi
##rain
##rem
scient
agent
smell
inspections
dish
disclosed
700
##under
institutes
lifelong
Turkey
exemption
Intelligence
length
subord
57
Pat
Ser
impress
diet
egg
##using
unexpected
##ocated
web
managers
producing
##eeper
consensus
subcom
pyo
##ivation
writer
KBS
La
##osen
repay
donated
disappoint
Heritage
Hang
staying
withdrawal
episode
nerv
zones
audiences
demonstration
finals
bereaved
PC
Deliberation
##jang
reconst
##uls
Insp
2000
weaken
Singer
##roud
uncom
root
scr
scenes
##iest
##oung
##eds
civilian
strengthened
demonstr
chair
supplement
freed
favorable
roof
paintings
luxury
##ront
driven
CS
pip
Once
entreprene
Moo
convey
upload
appreciate
stake
habit
Dream
bio
wire
##andis
percept
Gwanak
unveiled
thus
voluntary
POS
Amaz
Valley
hidden
sen
##arity
bridge
Songpa
clubs
Rural
##echeon
personality
Following
supplied
##astern
vacc
##aes
##urt
stood
solo
illegally
##pond
promise
Lun
logistics
lab
##fortable
teaching
closing
Tues
##ket
##oir
multicultural
channels
Mer
pig
##inations
numbers
Another
violations
fing
Who
expertise
strategic
Kook
##cean
Galaxy
##oral
issuance
Control
Mapo
fulf
semin
Naver
##rence
Tuesday
tears
confront
Does
Hyo
destination
Girls
120
Ham
mutatis
ce
##hop
preventing
Analysts
##mother
##achment
conclusion
surpass
##riers
previously
accompanied
58
festivals
Bucheon
geun
hundreds
draft
principal
usual
Doosan
Officials
##EX
sav
instru
mutandis
##log
Guard
optim
Forum
accumulated
martial
Congress
sufficient
##ns
##ighters
##raid
streets
fallen
##arious
##osite
phones
Hyung
smoothly
snack
Hon
Black
Pacific
##wondo
##eek
classified
63
Gap
outlet
Articles
governed
afraid
##amic
remained
restrictions
Twitter
boyfriend
##ighter
##reement
59
chemical
##uct
chosen
serving
auto
begins
##ema
Which
surprised
emotional
##regular
harassment
##rok
soup
ah
tech
abund
phase
assoc
deeply
repeatedly
landscape
stim
autumn
implementing
anticip
dreams
##essions
keeping
messages
tens
restoration
safely
perspective
priv
climate
Consum
guests
Bel
Post
anxiety
Bas
##imately
##elling
auditor
inquir
uncomfortable
studied
steadily
removed
Ap
kid
matches
massive
Future
heritage
voluntarily
neighborhood
##contract
##etic
missile
interior
Entertainment
feet
boom
Exchange
institutional
cells
Paris
acknow
valu
shareholder
resignation
##umi
holds
freedom
Gong
##osu
belonging
85
Next
clock
Square
disasters
##hibition
graduate
thick
servants
aims
adjustment
sincer
formation
bicycle
Amazon
milk
routes
cancellation
fires
##ortunately
publish
Techn
##aving
disclose
Buk
complic
achievements
opponent
Panmun
franchise
Sewol
Maritime
Author
manipulation
extend
irregular
ID
Paul
supplies
fisher
proud
##ifts
feasibility
Sen
expense
##obby
maintaining
adopt
Qu
Jeonju
Autonom
Out
resulting
Hist
neck
showc
compete
presence
battery
##abinet
violating
Card
##rid
##etr
strik
refused
##loyed
momentum
generations
Southeast
##gae
exhibitions
coin
furn
sources
theory
##aret
guess
Pastor
##osun
cup
##uition
##ilos
##aekwondo
Class
utilize
cake
##amber
investigations
spect
shel
Branch
pork
cited
opposed
66
##iel
selecting
livelihood
incor
Competition
settled
collapsed
thoroughly
quiet
##ometown
recyc
upd
guil
solar
honorary
correspond
supposed
Gwangjin
subcontract
cheap
customs
Buddhist
girlfriend
displayed
radio
magaz
Mod
willingness
##habilit
Jak
Lit
Like
anymore
inher
##verse
factories
subsidiary
aw
propos
escape
Mir
exting
workplace
earnings
KO
hwa
##hai
enjoying
##arbage
extingu
##asc
Asiana
congrat
benefic
peninsula
absence
strategies
shaped
closer
refugees
##echan
##jo
processed
solved
64
Times
spicy
Olympic
##ederation
carbon
62
##wood
Seon
Deok
Framework
pieces
##lin
incumb
mobil
arranged
aired
##athy
countermeasures
AS
Ban
worst
risks
##itchen
permit
Shang
identify
kilometers
states
calm
harmony
61
portion
answers
Cal
acquaint
sensitive
balanced
startups
##yl
depth
informed
winners
celebrate
insu
ships
Swed
democracy
mandatory
Given
voc
textbook
engineering
72
practices
cig
depict
194
piece
hung
##tered
unre
MBC
dementia
strange
regarded
##ilateral
Mor
sponsored
Summit
Here
Mike
##maker
##icop
##enty
Chosun
admitted
impose
uncertain
moist
assaulted
intellectual
Training
broadc
Awards
satisfied
garbage
reun
outcome
basket
humans
neighbors
struggling
Commerce
casual
speaking
incumbent
Wang
Chae
Yeongde
Book
sup
Abe
intensive
west
##itch
restricted
##ote
meter
Chungnam
harmful
##what
prol
disputes
Resources
Constitutional
Uzbekistan
hometown
micro
imports
seriously
error
Test
smoke
swimming
granted
folk
Members
Account
fails
controversial
POSCO
68
##arta
##ultane
somewhat
subordinate
waves
Conference
lowered
rebound
KE
Guro
accurate
solving
Club
timing
clothing
##habilitation
Broad
wine
teach
operates
cream
evac
generated
analyze
copy
##amm
stages
##acheon
bullet
##osan
pal
obst
cutting
Establ
magn
Exhibition
limitations
IP
philos
allowance
Jeonnam
Enterpr
##ping
expiration
precious
Kookmin
cigaret
##eth
Unions
Presidential
probably
Goryeo
Os
##ormally
larger
inauguration
luck
2006
##PI
##inances
##eneration
Theater
Protection
Okay
inn
##urb
climb
immun
insufficient
##ocheon
promising
earned
Prize
250
bread
circles
missed
Winter
##itis
risen
laugh
tou
reviews
Revolution
Namyang
angry
seniors
Jakarta
Fac
officio
statements
perception
abundant
##gyo
##onents
##chest
Private
particularly
Tom
##ores
helicop
directed
utilizing
row
##CC
bodies
##birth
thr
absol
##while
73
Polit
##angible
faced
remov
sitting
kill
insisted
Force
vegetables
note
simultane
##night
##iders
preservation
robot
##hang
anger
poss
Eui
literature
##aired
tomb
funding
extrem
consultations
joining
##iger
fried
partially
visual
consultative
curious
temperatures
Gimpo
advertisement
Uijeong
Put
##haust
##iliation
bear
Proper
critical
##put
##urches
##ector
Italy
sexually
Building
Environmental
tuition
reviewing
indicators
Rail
pul
##olic
slowdown
Election
Ma
championship
sauce
invoice
191
offers
ultra
Foot
Major
membership
DM
pool
##rown
arrange
stayed
exactly
Uijeongbu
truck
manpower
effectively
percentage
temple
experiment
Hello
Angel
##ounder
stamp
sixth
revers
colonial
##tegr
hearts
##stan
priced
secondary
Confuc
denied
hers
attrib
##istries
die
tun
volunteers
east
constantly
killing
##gin
Lunar
abn
beach
##force
assistance
fold
##lom
##word
exhaust
subscription
Investigation
intended
separated
libr
##ctional
settle
equal
scores
fostering
fundamental
mir
Play
temporarily
subscribers
Wan
jong
expressing
assigned
Ren
citing
##ki
donations
Airlines
##berg
overw
studio
Hana
reflecting
entrepreneurs
lover
Except
glad
##acle
answered
client
119
advertisements
Open
Ja
Africa
kitchen
##uate
heating
fines
systematic
letters
Jeonbuk
2022
iP
##FA
##rete
upgr
marks
##ructuring
stronger
dismant
shout
artistic
sacr
##yber
Gyeongju
##istingu
ferry
BM
Custom
##ona
ministries
photograph
Byeong
Crit
divers
kyun
struggle
Gw
na
tension
collective
pastor
batter
wastes
Gangdong
Contest
fledged
rang
##uous
##set
toil
##ented
##ifications
considerable
emotions
Non
beef
interviews
academy
western
pedest
sustainable
solutions
overwhel
Cand
Ky
iron
Coast
herself
Woor
##gok
##erous
pursue
easing
boss
shipment
##uster
Library
Great
wealth
Heavy
persu
therap
otherwise
67
Amb
locals
yeol
deceased
noodles
reserve
certificates
collaboration
cycle
##inating
##rooms
saving
reviewed
##oseong
Shanghai
Mich
##uries
highlight
CJ
Mac
abandoned
amaz
Jinju
Students
##mittees
analyzing
Transportation
Cr
##cing
taxp
violated
England
attractions
netiz
Various
booked
##ponding
##gypt
FSS
Seod
Egypt
guilty
fab
##ench
weapon
subcommittee
contained
##ondon
FC
od
Myan
##plus
manufacturers
Period
ja
explains
graduates
84
aggress
expectation
attraction
stip
equity
qualification
calculated
wound
Integr
recession
Regulations
Judge
2005
compar
edge
London
##aser
##ulpt
indirect
Memor
kids
##otic
turns
lights
Drug
Emer
pending
wheel
impe
moves
fare
##icks
childbirth
poet
##fast
hik
walls
Judic
existence
impressive
95
hate
##rian
71
##xit
boast
affiliates
Woori
bot
##onc
##sequ
##ustr
marked
Yeosu
prosper
Span
superior
rumors
Audit
SBS
tall
divid
colorful
delegation
77
##field
founder
##mm
relocation
Brexit
CO
indoor
tradition
shortly
reflects
revitalization
Establishment
pad
##inct
40s
Football
Myanmar
outl
monetary
achievement
evaluate
titled
Property
##ows
desper
incentives
concrete
promotional
restructuring
pace
alliance
faces
parks
targets
Bund
cargo
surprise
extraord
Ext
alt
##agues
soil
demanding
commerce
Persons
##amun
supporters
comed
##ortion
defect
equality
software
furniture
talented
Looking
philosop
headed
consol
crew
entity
##erial
env
Ent
Emb
vir
##iaries
##with
suk
nursing
Gumi
cred
##ady
##ivalent
claiming
fault
##opol
cler
formal
Leader
seminar
abnormal
##ga
signal
Dongdaemun
hyuk
engage
curios
utilization
minimize
hire
hub
Chi
happens
workshop
##page
Its
##inking
Plaza
scenery
dismissal
churches
##agram
absor
Prevention
Prosecutor
horse
crowded
Burning
##esides
characterized
Happy
unions
Heo
revise
##omach
##eling
sew
Instead
fle
inning
##stood
Championship
movements
ratings
##chestra
mort
ok
everyday
Disc
resource
conglom
pregnant
hired
opposite
dealing
assistant
corresponding
##ien
##body
Daewoo
illness
Spanish
##jom
Daily
exit
restore
Indian
extraordinary
Hope
Qual
helpful
patrol
Chungcheongnam
DMZ
unknow
charging
guaranteed
grandmother
legislative
Panmunjom
dim
##iations
manual
hole
nam
trail
makeup
belief
Democracy
GM
##ipp
stomach
instructors
##rupted
Base
distingu
##pool
smaller
Above
pledge
##viously
Ke
dies
##off
acquired
rehabilitation
##ungpo
accommodation
##SC
##itely
hack
knows
postp
virtual
Expressway
fro
confusion
50s
constructed
unemployment
savings
##osc
Mean
##visor
welcome
curiosity
##ashed
spark
preced
attorney
equivalent
apology
liked
sleeping
##ymn
99
Bible
passage
##bing
adjusted
Authority
Game
gifts
##idate
##iano
ends
excited
Anyang
Cheol
winds
wooden
##aesong
gyu
##enz
noted
fever
thousands
ox
sets
Review
Leg
sacrific
und
reject
outs
defeat
remind
##ked
##awn
responses
pharmaceutical
ine
Rest
advisory
partnership
deficit
reconstruction
##itory
Both
dump
tent
impression
dispatch
##aze
Prem
cher
ministers
nervous
CSAT
crop
sight
Along
renewable
mechan
installing
monitor
yu
##inite
quarters
Actress
hitting
hopes
76
girls
proposals
Yeongdeungpo
calculation
phr
avo
graduation
Ambassador
Lake
samples
pride
der
##hak
ate
Argent
telep
attempted
panel
##hi
##ulatory
##fall
Budget
Ga
##oyal
##elsius
survival
Pres
rid
##ulates
flat
disposition
intense
cheering
friendship
generally
politicians
warned
succession
talents
detention
automobile
psychological
Hanjin
BMW
##eding
##rais
posts
immediate
conscious
74
Farm
##atics
##ecom
##abuk
supplementary
stands
Agreement
Mongolia
Sweden
Kaz
mig
knowing
terror
unknown
##bles
##avil
judiciary
basketball
CN
Lif
Right
Cent
waters
Gye
##itual
sevent
cooper
69
900
lyr
negl
determination
stepped
apologize
Inspection
Meanwhile
sculpt
MO
ru
notification
convergence
innoc
breakfast
acknowled
Yon
startup
accounted
complicated
Ber
Product
honest
celebrities
competitions
Meeting
removal
##rical
occasion
typical
governing
transparent
valuable
Celsius
##odes
facilit
homepage
Isra
banking
exceeding
Confederation
UK
##itz
anywhere
posting
governance
Pang
mine
##ya
##eness
Acts
commander
magazine
cute
##orted
##aph
arbit
argument
semiconductors
connecting
Seodaemun
prove
Thai
Dru
Rather
pure
neighboring
doctors
Officer
testim
Kw
couples
destroyed
Fort
##ES
chances
craft
harvest
misunder
primary
Confucian
Dok
Reform
trials
virtually
elements
mountains
forms
Studies
Dam
option
##anches
targeting
FTC
Memorial
speculation
oblig
Cath
Gender
Tower
dorm
resume
showcase
Schol
offline
experiencing
maxim
##hyeon
functional
species
tough
Sil
straw
Federal
jeong
Dav
##PG
genre
##wards
integration
jo
consign
lawyers
finger
gall
beom
heated
##apes
finishing
circle
departure
prolong
##cm
telecommunication
##zen
reign
##antic
observed
exchanged
Bol
Credit
worship
Lawmaker
Instagram
##iances
##DP
seekers
discharge
Gwanghw
rough
##cend
##jak
launching
riding
reaching
sty
stir
Ann
Communication
##break
##sing
##icate
##ograp
Adv
resistance
Consumer
##cks
##born
##30
meets
100th
mothers
observ
bon
healing
organic
USD
estimate
embarr
libraries
82
Mc
substit
Druking
approx
immigration
decisions
shortage
Emergency
Govern
mask
playground
ware
##inery
##icing
swing
##ikely
Convention
diagnosed
premiums
Dom
##iability
##ica
##ueen
finalized
Ed
##eline
##ette
##endation
saved
discip
Ship
discussing
purchases
identification
interpretation
ancient
millions
History
ji
##dae
commod
poison
embarrass
numerous
branches
192
Bea
bringing
unlikely
Wall
math
container
Kindergart
normally
##lywood
cultures
190
Cer
initi
confrontation
extremely
78
Det
cable
hits
slump
heatw
Joong
producer
##ateful
cheaper
passes
Chungbuk
liberal
sounds
Iranian
silver
Everyone
philosophy
tail
chronic
semi
dy
##gently
##utation
##antial
effectiveness
destruction
communications
Capital
##AS
visible
analysts
rainy
fulfill
##stream
##uters
enters
afford
Cheongdo
trips
principles
catching
Gwanghwamun
seiz
raises
infants
attractive
Area
fortun
##gage
##iques
incorpor
unav
leaked
refugee
bomb
ritual
weekends
representing
commercialization
praised
constitutional
Totten
pill
##hent
180
Jinping
Belgi
impeachment
FI
native
##myeong
##astically
##owned
Tottenham
##ifier
bench
networks
ownership
Suk
inject
inapp
##ether
urgently
Mokpo
3D
tied
##ana
adm
refr
fired
Standards
##xual
investing
deaths
##AR
##erates
chain
plate
pursued
ordinances
autonomy
reorganization
casualties
##withstanding
advised
suspend
regularly
proportional
inevitably
ambassador
worsening
##father
##ato
locations
resulted
floors
separation
drinks
reaction
fabric
Pangyo
##estion
consisting
slowly
protecting
telephone
##ils
affection
reference
Coll
tank
##iant
desk
verify
hyung
##gun
##ja
useful
fruits
liquid
scientific
sessions
trop
paragraphs
correction
##avilion
##unt
shift
invent
Siheung
##gue
quit
fairness
renowned
indicted
Namyangju
Dal
IC
roles
retal
doubt
immigrants
Talk
##irable
frame
larg
tastes
Gimhae
elev
democratic
gar
##uit
button
Earth
comprom
bathroom
amounts
amazing
wing
##eters
##umes
stream
##inseng
arrival
boxes
arms
##akh
intent
signature
listing
correspondent
91
shoulder
speaker
banned
automatic
junior
largely
Eul
pour
##alks
##obong
processes
handled
summon
Communications
steady
iPhone
Pur
Somet
Silla
pou
preference
ending
cameras
lon
perp
designs
combines
encouraged
Palace
bidding
##adays
Chul
completing
Suncheon
producers
Lifelong
Nuclear
##pe
Chamber
personally
Asset
Perform
creates
Such
mathem
shipbuilding
Broadcast
lyrics
Bill
Pocheon
scoring
Trad
defined
Forces
declined
Britain
jumped
Golden
Press
##onald
##oto
##ighth
juvenile
Vis
##jae
##rect
contrary
##gram
legs
instructor
##ezz
##unction
feared
checks
##arsh
Gov
pred
feat
statue
seventh
lie
##eing
progressive
err
nights
blocking
hoped
88
wra
##ao
##ument
contacted
Concert
outlook
Lord
Spr
fav
rains
##jud
divor
Media
Taekwondo
sought
seconds
infect
repayment
Embassy
92
##ulative
patri
distribute
attacks
objection
territ
translation
Know
relig
mini
ordering
realistic
decreasing
injuries
embezz
Sorry
##mal
passport
harder
Friend
netizens
inappropriate
hes
##eal
unified
outbreak
Compan
encouraging
Network
Southern
underway
Dongjak
issuing
PO
fed
##outs
sugar
Teacher
picked
abolition
##con
##asy
Yeah
unclear
tonight
structural
Bal
Time
fisheries
papers
Jeollabuk
techniques
Buddha
seizure
Best
FA
##rome
seop
substances
2004
agreements
Coach
Ssang
laughter
adapt
##orthy
monopol
Tor
inner
hasn
interven
threatened
clerk
Pass
##ano
##ortheast
soy
##oked
likes
harmon
Well
rus
flavor
buried
Equality
nurt
examples
II
nor
##AD
enem
portal
lifted
Gunsan
clinical
81
##ighting
Geo
Cooperative
Turkish
discharged
Kaesong
maj
transition
belt
##lands
investigative
concentrate
Kumho
79
systematically
Reuters
130
vessels
##gen
interact
taxation
telling
nutr
Sem
Sure
hat
stating
Char
##ifies
spots
exciting
petitions
Kindergarten
Should
lighting
Experience
captured
bulletin
directions
2002
burd
controlled
profitability
patterns
##ERS
87
Li
##onciliation
Bent
shipped
prest
Noh
suggests
Australian
Miss
##acket
grateful
Shinse
##places
Interior
prolonged
regeneration
desirable
chef
postpon
appliances
mistakes
overwhelming
prosperity
##haps
returns
Seungri
nav
##IT
relatives
treasury
##valuation
Catholic
##right
##pro
disability
split
Hwa
Mo
wouldn
FTA
Gapyeong
##kg
thin
argue
protected
replied
punished
Ob
financing
productivity
hosting
involvement
delegated
##igraph
##earched
surge
rede
Techno
Candidate
GS
ram
contrast
complained
fluct
Impro
powder
Kwak
Veter
##ria
washing
##abet
investor
fant
lod
featuring
Mel
conservation
dawn
pu
grat
metal
Hank
zero
resort
Manager
server
Arabia
Bay
##IA
##usan
mediation
coordination
Shinsegae
Further
##bur
Compared
writers
burdens
dancing
##bits
reputation
heading
##arantine
defeated
##DAQ
Eastern
weekly
testing
aspects
decorated
Dobong
Lear
rot
##ogether
grows
tells
Indonesian
##rel
##imal
submission
fewer
instant
193
stored
##risonment
PM
ble
lending
guys
##porary
expressions
broker
exception
86
rises
##nic
Sho
preferred
railroad
Hollywood
firefighters
eggs
nations
tow
##aya
##letter
authent
referring
preserve
##enez
##hyup
hurry
Huh
Mom
Municipal
tower
Anseong
##ycles
Living
##emon
machines
sle
##amiliar
dispos
skill
violent
keeps
recruiting
dign
loud
imprisonment
understood
opposing
exceeds
Representatives
confidential
Mult
classical
Chuncheon
Hyeon
##irty
logic
featured
burned
yoon
aren
clar
alley
therapy
ster
unavoid
Companies
taught
##ps
commemorate
##unte
##ensions
heatwave
Micro
isol
chocol
relie
extract
emissions
##roll
Cabinet
Evaluation
coex
files
unfamiliar
pollut
Political
approximately
reapp
specializing
Phil
Disabled
Dance
Typ
Whe
lau
Program
businessmen
requesting
##box
Superintendent
publication
ecological
auction
##osa
terminal
Isl
searching
Volunte
Basic
absolute
Kazakh
Sk
Venez
prayer
ledger
concerts
ancest
tools
Nexen
negligence
Journ
Night
ring
vent
salt
##rait
Isn
defendant
##lad
download
coverage
Bundang
lugg
##hou
sport
ages
Aren
Bloom
##ested
seasons
Arch
footage
Previously
technological
Wol
depend
childhood
compensate
missionary
outlets
publishing
simultaneously
unavoidable
visa
explaining
survive
##izza
MERS
Autonomy
ae
sin
agents
competing
restriction
postpone
Gall
daytime
##orders
closure
objects
##evision
surprising
guardian
snacks
##raisal
Sand
rival
##fers
Yangcheon
languages
weakness
malls
KBO
Call
Pil
##lock
reverse
##amin
Venezuel
Hung
shed
##OK
linking
rescued
Argentina
##bong
grass
increasingly
Notwithstanding
cope
##mented
publicity
blank
golden
98
##ima
##amation
prohibited
exempted
Broadcasting
Ik
scat
depends
Though
forming
midst
dominated
prospective
Icheon
Lo
VR
##igent
exams
intervention
USA
failing
luggage
hyeon
threw
##awa
rankings
congress
commemorative
booths
##sei
disag
unn
synergy
bookst
Dokdo
Sok
enable
flights
youths
provisional
birds
Psy
nose
##MA
Electric
relationships
uniforms
inherit
pine
ties
##uating
subsidized
Counter
NH
##eous
bron
maritime
stops
lifest
Yeoncheon
challenges
categories
Up
bloom
##ado
##acent
belongs
Nov
spr
greenhouse
recovered
83
inland
##qual
hygi
Saem
peaceful
journalists
Los
gang
##inqu
##yeom
infring
contributing
manufacturer
enthusiastic
KOSDAQ
##IP
##itively
##anta
breast
objective
Taiwanese
KOSPI
Anti
Five
KA
Ret
Term
Their
invite
2021
stabilize
veterans
Goseong
Sky
##iev
Yangju
revealing
km
##apping
##istical
##uma
##ago
invitation
retired
weekday
presenting
observation
Kyu
harsh
tact
vivid
##laim
##asium
wholes
exposure
draws
Consult
fellow
Integrated
##ymnasium
components
trig
##arency
bowl
Pung
alert
marking
opens
characteristic
historic
phrase
yield
neut
recur
deposits
scenar
bribery
wishes
repro
##ospel
cuts
lifting
Statistics
poured
Nations
strok
unst
deployed
Room
options
##flow
wireless
Critics
Hi
##itary
##iga
infant
painful
stuff
attach
depression
helicopter
diesel
SU
Sook
dil
##food
commence
demol
electoral
Plant
influenced
Angeles
Take
wan
##ivated
Kimchi
accus
proved
welcom
Natural
##bi
##ords
Advisory
hotels
telecommunications
Premier
postponed
##table
overtime
judging
conversion
##urd
Sharing
designer
worldwide
confirming
graduated
##ographer
##aut
##young
wash
##ileged
screened
essay
faithfully
printing
described
frozen
##uly
##attle
organizing
basement
merger
African
sewage
##ookie
detect
sells
Beach
93
##gung
happening
negotiating
celebration
Traditional
theaters
##semin
airline
newsletter
indictment
Creative
recycling
Mount
exists
uns
occas
Report
architecture
Champions
workplaces
Str
operational
grace
surveys
escal
definitely
irregularities
Bento
94
appropri
refl
Space
Treasury
romance
bell
laid
abortion
teeth
chest
bloss
examined
encounter
breath
Calif
Learning
NC
##NG
guards
eastern
occupation
protested
Californ
Had
bact
##guk
##zens
print
imposition
quarantine
2003
160
musicians
campus
Traffic
Facilities
Old
lying
##TV
##urement
goalk
confessed
presents
flying
prestigious
god
##ext
##atin
spoke
flock
buyer
conclude
vocational
Israel
Shopping
Dod
##ek
##list
Pharm
350
robots
excavation
vit
wet
##inent
courage
greet
machinery
licens
##IST
uploaded
Osaka
Crim
Eth
##uated
##amination
Ital
remod
capable
protests
testimony
##umption
##enders
advantages
transformed
96
Hans
##ndrome
adj
##eworthy
Baseball
97
Rober
Treat
fert
noteworthy
armed
Assist
forests
rewards
Extension
California
honey
##itarian
##ibly
everywhere
merit
renov
grandfather
Furthermore
##ami
circumst
Journal
hide
rush
##anda
discont
steering
instructions
transparency
explosion
toilet
AR
Dang
dating
vib
##rad
##aked
##oons
manufactured
Republican
borrowed
colleagues
##ilation
entertain
mush
qualifications
coexist
chun
context
cultivation
contributions
Spring
Live
glo
soul
tur
##nis
highway
boil
##arents
Hoe
touching
shutdown
Ms
bum
##lying
##usp
##andom
decade
descend
slowing
measurement
conglomerates
Boy
gon
mas
shouldn
informatization
Steel
Corps
surpassed
Gwacheon
Yonsei
cyber
##uis
delinqu
economies
colored
textbooks
bottle
soph
##dney
##emporary
Sydney
guarantees
wonderful
coastal
broadcaster
Nams
##reced
guk
serves
sheet
lands
camping
switch
Sometimes
pyeong
##ouses
classroom
Orchestra
walked
threatening
attempts
chocolate
Bok
Ri
rivers
surve
##ieties
##phone
voters
greeting
homeless
Bloomberg
Garden
vocal
Asan
##ecessary
##hester
erad
exempl
promptly
Fortress
Jams
bull
ginseng
##gye
restored
aggressive
perpetr
##recedented
Manc
incidents
disorder
##vely
decentral
##forced
focuses
Liter
ASE
IS
Sar
Site
bold
ongoing
framework
##ipts
Sever
conducts
parad
schedules
clinic
##inee
##utures
trib
inters
releasing
caut
supervisor
Subs
dignity
89
Main
##eok
##10
##ms
##OC
##ache
##izer
##ella
hero
captain
critics
Councilor
acknowledged
compromise
EX
TH
taek
alive
monk
inflation
acceptance
worn
worries
therefore
remote
burst
emotion
recruited
punish
congratulatory
Bro
Po
##inity
##icul
subt
thinks
covering
Holding
pregnancy
Lab
##een
Seongdong
professionals
platforms
attributed
facilitate
cautious
Kwan
bare
alarm
undergo
##itement
additionally
responding
Criminal
Navy
##nity
##atar
evil
rarely
Mob
##anes
repres
unprecedented
neutral
Nob
Pet
hal
hip
##eror
##isan
applies
##math
##asp
##ulg
##essert
Staff
distinct
coalition
commitment
James
##TO
abilities
drastically
deleted
floating
sections
nomination
gratitude
Rad
##ifted
dissemin
##ails
##undae
acquire
accurately
represents
rae
##asm
##hyth
drove
newspapers
rub
##owed
##usal
Stock
specialty
apart
tracking
Gochang
indicating
creativity
Manchester
amp
##hu
explore
expecting
Ilsan
frequency
disappointed
goalkeeper
pump
##isk
shin
funded
documentary
technique
width
adoption
Mag
##gak
aftermath
grab
Franc
cardi
lowering
abolished
religion
Italian
Hill
##orship
Stream
decades
desired
##azz
inquiry
photographs
Jamsil
Jecheon
initially
heavily
redevelopment
Tell
emission
drone
cheon
necessity
Chungju
combining
revenues
instruments
Bup
Cross
ocean
slo
trucks
Seol
doors
disin
Expo
##measure
mathematics
lies
##tech
##PR
stagn
clause
readers
massage
Steering
virus
##mi
rear
##active
2001
audition
severely
Corruption
packaging
instrument
trigger
Choo
##front
Brazilian
Accounting
reflection
Later
Langu
bok
##LED
##aduate
truly
midter
absent
ryong
beating
##agod
greatest
uncon
literary
tendency
satell
weakened
Gil
ast
dad
differentiated
##onym
Songdo
Geumcheon
journey
yuan
Sokcho
Dig
IM
dae
Liberal
congestion
supervise
Kazakhstan
piano
ther
prizes
leap
medals
carriers
taxis
executed
lacking
batteries
initiative
pock
rational
##imeters
legit
##flix
romantic
shelter
dynam
Wood
dessert
##emen
##earing
somewhere
neglected
bronze
JT
##point
##PCO
##ancer
shower
##onto
Netflix
Data
por
volat
engines
lodging
relieve
excitement
stepping
sweat
liquor
MC
Vision
Week
shaking
##uds
Maybe
Prior
110
excellence
Mexican
nominated
clouds
Solid
##ursement
anticipated
Subsid
cum
gains
searched
##BA
Seongbuk
suggesting
assessed
Veterans
Kyo
blog
mol
##lings
##arge
column
Canadian
Cert
##walk
##hee
responsibilities
obligation
uncertainty
hobby
shirt
habits
cheese
integrity
occupied
crops
reappoint
ASEAN
mainstream
announcing
defects
Putin
lift
stuck
offensive
appearing
muscles
tunnel
Toronto
Mission
Vlad
##ilt
##illance
frustr
chae
pays
KEPCO
Ocean
fought
lung
##irts
frag
compuls
resid
abused
seo
reluct
prominent
renewal
ceiling
Berlin
Bupyeong
##AE
Haeundae
diplomacy
sincerely
Long
LED
ham
##20
warehouse
outer
polar
painted
Block
renewed
Participants
sincerity
unstable
exemplary
##fish
##inema
##igue
##print
representation
sincere
##ICE
wholesale
Fact
Hand
##NA
thereby
qualified
Madrid
fishery
unreason
errors
##west
##PS
seaw
aviation
criticizing
exclusively
consistently
inquiries
##TE
shorter
cha
deals
impressed
activists
acid
belated
enhancing
advantageous
resigned
Campus
##mu
##writ
##ales
##tering
Seog
viewing
breaks
suspicious
shocking
Nonghyup
Language
Kuk
mock
sam
##priv
Chungcheongbuk
##deok
windows
Yeoju
vitality
Master
tox
seong
overt
revive
structures
Ssangyong
##privileged
Boo
pizza
##icular
drag
140
comfortably
allegedly
Paulo
Enterprises
SUV
cats
vary
suits
partial
seed
praise
disadvantage
##zing
##embang
##aste
variable
obtaining
##athon
poster
neglect
accepting
texture
cooked
Volunteer
##oT
##geuk
##rible
choosing
suppliers
Palembang
taxpayer
##la
##atever
requiring
occurrence
##ambling
welcomed
proof
##ifiers
##overty
pointing
attracts
batting
quota
unnecessary
shots
Domestic
Pak
wis
##nae
##mistry
##urious
asleep
preserved
delivering
Northeast
##rell
##ocate
founding
traveled
flagship
Telecom
laund
lifestyle
JTBC
Golf
##essing
infection
Prince
format
Add
distributing
inflamm
questioning
seafood
displays
Again
liver
##PA
##ereg
##ruck
genres
margin
KTX
leakage
shocked
Travel
misc
##istrib
surplus
filmed
Working
converted
muscle
acquaintances
consciousness
Fortunately
Mt
reserved
proven
induce
underprivileged
measuring
insert
commencement
bae
hong
##drop
topics
seller
barriers
Improvement
midterm
Top
diversity
##roid
stall
chap
Seosan
relics
Generation
questioned
Allow
discounts
Student
computers
##imbap
Excuse
Judicial
disb
Gwangmyeong
disposable
IoT
Ronald
prote
spray
Baekje
revitalizing
removing
Morning
dividend
FIFA
hesit
innings
##manned
ranging
lane
makers
##oma
##ulent
##overe
manages
##obiles
pursuing
emerge
trainees
tennis
Startups
hygiene
Bie
Venture
layer
##iner
##itative
tries
dozens
preempt
appeals
predecess
Gl
propose
burning
rooft
yard
exag
trained
recre
downward
approve
verified
##ariat
ethics
Caf
Pald
Upon
##ini
positively
discovery
Beauty
IB
rig
apparent
scar
Guarant
suspects
petro
liberation
observe
prospects
Relations
envoy
embezzlement
Ram
Starb
Americans
unfold
halls
brothers
storm
disturb
juveniles
resh
hardship
connects
voted
lonely
DSC
Zeal
committees
dried
Lawy
moisture
cherry
Em
trains
##berry
Story
commendation
Junior
cafes
##hetic
Starbucks
Bon
generate
homework
runner
humanities
television
secretly
nin
##ammar
calligraph
targeted
tenants
cooling
Solidarity
rhyth
##ura
impl
Web
reception
Conver
valley
packed
cust
##ione
##acts
soared
therefor
attends
networking
aspect
pitchers
Zealand
Use
Gyeongg
arise
menus
Plus
warnings
cigarettes
unreasonable
rib
##aled
##omed
##through
boats
organizational
distribut
corrective
Creation
script
territory
federal
##abetes
Flo
GDP
Sch
##ba
developers
hospitalized
deliber
##itar
##elly
##ete
detection
Yangpyeong
Christians
aiming
automobiles
Kingdom
update
Guarantee
poverty
##ygen
##dang
##FC
##ander
submitting
vacancy
Honam
acquaintance
innocent
Rob
##tan
##asant
mobility
wallet
Sales
Renault
infectious
kwon
##otyp
ears
forever
##eeping
Eunpyeong
noticeable
substance
Products
enemy
surveillance
Viol
vert
summ
barrier
witnesses
mobilized
Governing
##author
Hoon
Make
dressed
maker
tie
##ST
##mbrell
circulation
eaten
produces
vessel
Shipbuilding
Jack
TF
examining
resolving
supplying
Pyeongchang
##ael
##ipo
transmission
profile
valid
dramatic
dealt
inspector
solidarity
Whether
LA
Queen
Rock
facial
Particular
contractor
competitors
##okesperson
passionate
David
laundry
Walk
tabl
##zo
aside
##aping
Indeed
##aughters
believing
wondering
label
adjacent
pink
##rom
##mates
domin
violate
##lessly
powers
desperate
Rem
filling
traces
monument
anytime
pleasure
Mongolian
depicts
cigarette
##arch
##oline
donate
budgets
breakthrough
60s
breathing
explosive
AM
Inv
sequ
induc
##urrenc
Without
minds
flows
slogan
Dise
Ec
Ev
cakes
dereg
wore
##lers
##icted
Researcher
Content
immers
doubled
introduces
printed
benchmark
refriger
wrap
##makers
##well
##ansan
perf
##ogi
Step
comeback
legend
Du
Jer
Wi
cab
tor
topped
shame
exped
landing
preparations
achieving
pollutants
reluctant
Convergence
Gas
dens
##gic
##oret
##igm
allocation
carrier
righteous
inspected
listened
##play
perfectly
strictly
auditorium
Digital
Gre
bilateral
nick
##DS
##isive
##roc
##lements
##olved
##uts
apps
unmanned
Reserve
##azy
specifically
celebrity
copies
charts
Ah
Cle
Ter
tone
##seok
##ifiable
##ensation
Andong
attacked
editor
welcoming
Dub
bike
tiss
##jung
conce
amended
undergoing
scattered
TO
eased
##icine
##omi
Short
cruise
comparison
Ten
tub
trash
##ksan
Secret
conventional
##authorized
Masan
dual
##nix
##zhou
##roat
##ada
stem
crashed
speeding
Expenses
Particularly
Ve
mound
rac
exploration
obvious
Measures
diabetes
textile
comprehensively
sympathy
palace
divorce
Hadong
Di
walks
##hand
capability
capture
downturn
rumor
Nakdong
##greg
##yard
##hew
##state
189
lessons
Personnel
magic
##uffle
feedback
oxygen
scenario
Grow
oh
tap
tooth
beings
notable
##elled
upward
1998
spotlight
Survey
Quality
woong
##mo
viewed
yeong
pulled
pedestrian
NIS
bone
##sem
##uming
seon
fined
pottery
lovers
odd
substitute
pupp
shake
myster
Index
Yeom
seasonal
juice
Muslim
nominee
journalist
deterioration
pipe
##agoda
Light
dict
yen
stairs
longest
Gwanggyo
traded
conservatives
hanging
Mirae
Belgium
Citizen
LC
Liv
euro
fate
##unch
evasion
##ogen
consp
compliance
convened
calculating
café
prospect
quoted
heaven
poisoning
cluster
##ducheon
confused
artif
designers
Spec
lesson
intensity
babies
Tomorrow
Den
lip
mac
drones
offense
infected
proceeded
enthusiasm
##entle
stones
##izations
Chil
residing
##yeol
constitu
acceler
enacted
consolid
pouring
Holdings
Coin
adoles
graph
animation
slowed
minority
consistent
exhausted
Entr
Floor
Men
lapt
lobby
sovere
##bol
##sin
##atoes
grammar
##uched
represented
approached
finds
supermark
Gar
Vict
daughters
mic
##wear
##emet
Dongducheon
mode
supreme
Ni
Ol
##ta
##lash
approaching
properties
170
Wonju
boys
deduct
ranks
appealed
associations
Ta
##ito
touched
##ando
realization
refunded
gard
moo
##quarter
differently
rounds
1999
starring
hikes
Venezuela
Sel
Set
##idem
##owon
resumed
unauthorized
lock
funny
billions
exclude
inequality
ax
##ded
##heastern
##esity
##ials
chore
compat
lev
prejud
acted
adds
##ampion
caution
Hanyang
soldier
deliberated
Yeongdong
emphasizing
intentionally
Patri
Senate
Enterprise
MOU
onto
statute
prescribing
accessibility
Professional
appreciation
##acles
##iber
collusion
reveals
bases
##tr
toll
oppose
tours
travelers
portrait
Rain
##oted
relative
Unit
electronics
##iox
flowing
emphasis
reborn
rooftop
##emetery
Battle
Fe
##rose
##otive
Orig
Summer
Islamic
##istribution
bub
lady
motion
##due
lineup
civilians
covers
deduction
horiz
bacteria
Camb
Mil
Nor
SW
jail
forth
expired
seung
entit
prevented
determining
distrust
practicing
squad
edition
inconveniences
Robert
compulsory
pants
pets
##week
explod
##plant
predicts
ideal
universal
Centers
Eulji
##host
pron
realizing
exercises
silent
fatigue
flooded
Nexon
Bolton
Bor
Watch
bail
##ement
##oom
evident
output
passive
presidents
replacing
assaulting
Expect
throwing
immune
persuade
highlighted
credibility
predecessor
Latin
##va
compare
enables
activist
housew
Chemical
midnight
simpl
##iliary
sympath
Autom
Geumgang
striker
Around
cave
eighth
omitted
noticed
decisive
Gwangyang
indicates
occupancy
admissions
struck
##illiant
confer
soaring
crude
backlash
copyr
glasses
embarrassed
Gymnasium
Run
sed
##dam
##reens
##eman
seized
intermedi
significance
upset
Advanced
weekdays
##urrencies
05
Bitc
Cost
Yemen
infer
staged
anch
activated
knee
Barcel
apologized
Cell
Kon
Parents
##ita
deok
guitar
##oves
Commissioner
circuit
Alliance
##aintiff
conditioner
conversations
motorc
##itzer
Osan
##sen
##ayers
tenant
warming
poem
eliminated
preferentially
tropical
Ronaldo
Barcelona
Ball
OLED
cul
stret
exten
##essment
Seven
brings
112
successor
surveyed
bankrupt
##lusive
deposited
Matt
recalled
Fourth
Teachers
satellite
Bitcoin
Hom
tag
defensive
strongest
femin
exercising
1980s
translated
shuttle
recipients
dormitory
LH
ROK
bong
besides
##itors
allocated
password
waited
Yeongam
acquit
conveniently
Happiness
Coun
hin
loo
Season
vari
sentences
vacant
reservations
bribes
fortress
defectors
recurrence
deregulation
Bet
Id
Mobile
gambling
pione
##Talk
##eries
##iratory
steep
##seon
##ipe
overcoming
instability
chemistry
portray
emphasizes
lucky
LPG
hiding
sorrow
prostitution
problematic
##usement
Compensation
hoping
imagination
intersection
extenuating
intangible
refres
Executive
occurring
reduces
substantial
Usually
OEC
arose
##Log
Change
plaintiff
reliance
reliable
newborn
Finally
decreases
1990s
scholar
spiritual
cheered
inheritance
Terminal
##orge
treaty
convene
comedy
elevator
Mosc
plenty
leaf
weigh
Third
##owners
##teok
Hanbok
absurd
##chiat
surrounded
reservoir
mysterious
OECD
Code
Gate
Thus
scent
##angeul
specialist
Hanam
##isticated
remarkable
escaped
ethnic
architectural
Legisl
Av
Log
##iny
asks
reconciliation
genetic
Taegeuk
inconvenient
Mall
Nan
pull
umbrell
##hin
input
##ilization
guy
commuting
fierc
utility
ramen
Namsan
cow
##opic
resem
leaking
sees
seeds
Unf
Animal
recommendations
adjusting
eliminate
wrapped
Expectations
hug
accom
economics
subsidiaries
missiles
matching
barg
hill
overhe
presumed
lacks
antib
threats
essence
Perhaps
ingredient
imagine
shrine
Arena
protein
Gyeonggido
##ON
##onic
##olk
reaches
plum
interim
brilliant
1997
concepts
abolish
ignored
dissatis
nutrition
Biegun
ward
##bally
Guang
parade
Hyuk
Hynix
obesity
debts
suggestions
utilized
descendants
variables
##etime
aller
caring
interpre
evaluating
##leyball
crying
advisor
containers
hacking
crafts
brokerage
Dog
gym
##ecute
suff
plung
##ulty
clients
socially
parked
Jincheon
sensor
cloudy
bicycles
CNN
maximize
decentralization
UAE
governmental
refuse
Byun
##ESCO
Pursu
rushed
Besides
Merc
pin
till
conj
##angel
grave
islands
BioLog
indirectly
Cast
Mill
cuis
pensions
ramp
Actually
Choe
filing
marry
broadcasters
cumulative
oldest
humanitarian
emphasize
gasoline
Heroes
reactions
Performance
Counsel
Moscow
Futures
See
Sov
clic
da
##sung
##ota
##ulf
trick
enorm
refrain
airlines
reforms
terrible
crossing
##breaking
Autonomous
Kh
##hyang
screens
controlling
indicated
remembered
Disease
Mess
Init
indis
discard
Assessment
Juven
proceeds
irre
Michael
avoiding
sophisticated
Paldang
Educ
fence
##BI
##ros
imposing
teaser
decides
resting
tested
alternatives
stabilization
Commercial
sacrifice
artifacts
Zero
##orous
##ainties
Daes
bottles
Switzer
Hun
warrants
speakers
load
treatments
boarding
estimates
Railroad
boasts
mortgage
consignment
Edu
Ra
pestic
resumption
incomp
attaching
electrical
fairy
##ographical
UNESCO
cooperatives
ninth
Switzerland
Ver
pages
vend
ank
workweek
slight
influential
persist
##proof
Ku
Mary
Oil
##sea
##acco
##quate
interf
Ref
improvements
evaluations
intensively
penalties
Malaysian
Presby
Soviet
Sign
##dan
syndrome
specialists
foreigner
posture
##comes
villagers
KakaoTalk
soybe
Bum
Koh
Wind
vig
##ID
neat
disrupt
lasted
assumed
developmental
broadcasted
corrected
hurts
toxic
Sind
tort
##kward
Spokesman
humid
fairly
proceeding
repeat
veteran
Customs
discipline
reappointed
belatedly
entitled
BioLogics
Hangeul
none
##AAD
##ortium
Proc
revoke
combine
##crim
##cious
##zy
##MC
##isa
##terior
coupon
united
blocks
prevents
Gangbuk
airpl
transferring
unemployed
awkward
Dodgers
Gy
GT
KIN
cabinet
##atial
##oric
##rovers
selects
crossed
allegation
PD
##rams
bean
choir
reck
twin
##ounds
Coord
##boards
embassy
assignment
THAAD
##riation
shook
alien
Spirit
believers
anxious
Gyeyang
inventory
remodeling
AP
Hel
Having
Yellow
##stone
breeding
complain
certainly
swept
##ambur
notes
spouse
unity
salad
arriving
Regulation
sunlight
eldest
glance
uncertainties
avoided
Bur
Come
Event
##piec
Things
##venir
cultivate
cleared
##criptions
##uxiliary
Attorney
aides
brown
dates
##kuk
##myung
heon
Inside
##andong
##iaison
Provision
respected
159
Mrs
commonly
radiation
nurses
Scholastic
Subsidies
rim
surn
##Chang
##ele
##umin
shell
griev
grasp
lovely
swit
Cat
sisters
butter
unfavor
Statistical
retailers
##viron
violates
photography
Controvers
challenging
Interest
merchant
worsened
intentions
##semble
loyal
mud
rape
van
##pat
##olen
Ability
secrets
associated
foldable
masks
subtit
Dubai
Pursuant
KD
unjust
##incess
defender
modified
hyper
applause
adviser
enactment
spectators
poetry
commodity
Growth
##ico
choices
2030
repat
servant
Resident
CEOs
inflow
firmly
intensified
firefighting
reversal
Fashion
Royal
lamp
tok
overdue
Guid
procurement
puts
dramatically
##chers
declare
PyeongChang
stopping
regrettable
convinc
##ennale
##vironments
Ba
Eld
tip
##oshi
impr
headquarter
protocol
marg
##phones
ideology
1995
Graduate
bitter
hanbok
climbing
Pharmaceutical
Six
dental
nurse
##mn
crash
enhanced
malicious
##ascular
beneficiaries
mirror
summoned
Haw
Mater
fog
overnight
Newsp
preventive
broadcasts
lecturer
POP
wisdom
Allowances
enormous
Mother
Soul
fals
providers
mature
ourselves
recognizes
Phot
1994
cuisine
Bin
gentle
wider
##udes
##ums
lean
##eller
minus
measured
knife
accomplish
conveyed
fishermen
reversed
upgrade
##iculous
Tak
pity
revel
shaken
comparing
amusement
drank
receipts
periods
authorized
urging
batt
cartoon
Senator
relieved
Nuri
Yo
auxiliary
component
##airy
terminated
Doct
affiliate
stressing
thermal
##cy
whatever
##onscious
suggestion
exported
troupe
souvenir
discontin
rhythm
Tech
fusion
##gor
Deal
##justment
burdened
strengths
Concern
forgot
Apartment
stroke
unfavorable
##aver
##otton
##geum
incom
chew
faction
trem
criticize
##ercul
hungry
Ceremony
Ethics
loves
##vation
reimb
faculty
Respon
##note
allev
Order
embro
lifetime
##ographic
colleges
Ben
Fine
pavilion
##AC
##ida
treating
legally
planting
encouragement
Estate
Series
ancestors
accompl
Far
##rine
##IL
haz
##agen
pepper
Jew
practiced
embr
Standard
Controversy
##erculosis
Cold
beverage
stolen
##ifting
##obb
Assoc
keyword
deepening
##rehensive
Christianity
kicked
reshuffle
Cambod
08
champion
explo
investigator
signboard
paste
hospitalization
flooding
gallery
Lou
Together
cups
##part
##fol
pla
affair
nowadays
audits
planted
athlete
probation
Monetary
Max
Tree
dur
joong
lend
##adow
contemporary
themes
calend
sunset
Study
Dragon
episodes
misunderstanding
paradigm
Folk
##fit
##itionally
impaired
##ensional
transplant
pastors
loving
beneficial
CC
Too
gospel
##sun
permitted
urge
sanitary
Symp
##ielder
reunion
adolesc
CG
Duk
Hear
bib
du
##gar
##TEX
Challen
ade
publicize
smiling
buck
patents
declining
Infinite
arrangement
shouted
taxpayers
tailored
Billboard
calligraphy
##houses
##leum
asc
##ests
shoulders
filter
Beom
physically
normalization
thrown
mentally
volatility
polarization
prejudice
Uk
aide
apt
mos
##iso
beans
##hedral
##acks
holes
auditors
##isco
Kiw
reorganized
accelerate
Guardian
01
random
tier
anonym
traged
##mbuds
Comprehensive
logo
withdrawn
incentive
forgotten
Modern
KINTEX
YG
Yak
drought
vic
Asked
Disp
luncheon
criminals
borne
satisfy
coordinate
##ilaterally
tensions
COEX
chaebol
Fer
Father
##elight
##amics
##ailed
##veloped
lottery
ceremon
accordingly
commemoration
worrying
politician
Educational
Alex
wides
##eland
invasion
transformation
unconscious
privacy
reminds
ICO
Mang
pair
porn
##pread
addiction
booking
hardly
waist
negotiate
sanction
Holy
symbolic
mounting
rooted
copyright
derm
##uum
##osexual
Resort
Shinzo
lunar
celebrated
Standing
reserves
pipes
Pract
VIP
##iating
##da
##aki
environments
earning
youngest
complaining
academia
Investig
intensifying
webt
tombs
burdensome
EXO
widespread
Gyo
LNG
hyp
jacket
admit
unilaterally
intend
designating
healthcare
1996
Organizations
Tongyeong
upgraded
Michu
dimensional
dynamic
ET
lens
##aro
##icism
##leung
##opy
cliff
drain
referee
messenger
panels
Overseas
Judiciary
distinguished
sculpture
Gallery
Cafe
bones
fits
fighter
##ora
##ashes
##sters
##occ
relay
coaches
competed
moral
advancement
oriental
Anyone
demonstrations
vaccination
authentic
Lawyer
custody
Bad
##agu
Saema
Syria
relaxed
obligations
pocket
Seogw
Saemaul
Duty
Xia
cere
##ni
##inally
scor
suppress
##ateral
##rows
developer
belly
Suh
Democrats
##roads
Display
vegetable
flew
Livestock
##fied
##utely
compos
abst
performers
termination
freeze
closest
##ishers
communicating
virtuous
dividends
rejection
Provisional
03
Distribution
boring
pressed
##ignt
dependent
extending
Daed
thankful
1970s
injection
nurture
tv
##fire
##esters
##andum
develops
Partners
##ientious
photographer
installment
lawsuits
eleg
pledges
commodities
Collection
Seogwipo
Liver
Rich
Susp
gyun
##terian
##imp
appraisal
railways
celebrating
luxurious
Leaders
weakening
Countermeasures
CD
ghost
##hansan
##angers
Inha
reside
carp
carpool
##istered
Check
Everything
optimal
demolition
Specific
Entrust
Kiwoom
##ignty
Circ
gyeom
thres
##ste
remitt
clip
Univers
Whenever
revived
amounted
obser
countermeasure
liquidity
overlook
Unfortunately
Elder
Jim
Tex
eager
yog
Chu
disorders
collateral
emergence
poems
findings
Parliament
barely
Bul
rok
##tic
chol
chip
soju
Choir
parcel
expresses
breakdown
Medicine
eligibility
commented
beds
Hanky
raining
##dy
##verages
fintech
locked
depr
flav
validity
ripp
specifications
ratification
engineer
scholarships
cotton
kiss
##iang
##nori
##lu
compiled
examinations
vacuum
respective
##shine
Nether
helicopters
mile
##bl
##ira
convert
invention
finances
mining
anyway
measles
happily
farmland
experiments
crucial
blowing
immunity
Presbyterian
SC
rocks
##bow
spare
adap
##quet
outcomes
##chemical
wrink
Corporate
packages
sensors
pitching
##amboo
Early
ambul
CCTVs
Railway
Woong
Chic
workforce
countless
101
flash
delegate
reinforcement
Merch
bookstore
Bab
dying
##net
##alent
##itivity
##ille
aggreg
ski
newlyw
calculate
epidem
Hwan
Rom
woke
##irang
##unge
exterior
##ustration
intest
provider
delicate
keynote
cleaner
trusted
accessible
campaigns
stole
recipient
updated
Knowledge
Coordination
Michuhol
sort
##gyeong
##iar
##western
##jing
##allel
spatial
engr
sole
thereto
guided
Coal
Beh
mechanical
Hankyore
List
Pavilion
Rod
lake
##life
##yan
##bor
##MS
##elet
##otics
supplier
detective
employers
determines
diam
digit
briefly
protesting
Startup
fantastic
##laimed
Sector
bother
sib
##lelight
##oup
disqual
brush
manufacture
barrel
keun
excessively
museums
Honor
dining
rookie
##ford
stew
hak
abusing
perce
consisted
backdrop
hearings
semif
individually
distorted
verge
arguing
pleased
rented
timely
bands
favors
infringement
##omeday
Clean
conjunction
Host
##EN
##umber
##acular
string
prescription
freezing
divide
commissioner
attendees
##shin
kilog
dominant
refreshing
tragedy
CBS
Ut
dol
ports
##kind
##apped
##imer
##ository
scared
undert
economically
skating
regulated
engineers
motivation
fraudulent
unpaid
pigs
Little
chaos
Eag
Sae
Wage
taekwondo
##illy
purifiers
entities
pitch
disadvantages
Literature
Aven
Band
Hen
Low
##fine
##alog
subsequ
craze
Hyd
fastest
##hyun
considers
surviv
biological
Uiwang
##burg
accusation
boiler
Radio
umbrella
Kun
SH
##inction
nep
##olli
coaching
desert
arre
lotus
viewer
steak
Veh
Kids
Wr
##osium
delight
Trust
salaries
##factory
polls
exchanging
hiking
retaliation
triggered
Concerns
aqu
##bul
maybe
Frank
Disabilities
Nowadays
intelligent
conscientious
Harry
vaccine
stipulated
majors
Netherlands
Money
erect
ling
Sexual
##odo
companion
constr
improves
##isms
totally
holder
troubles
Flower
Typhoon
exploded
Hankyoreh
pagoda
scan
Stone
costumes
default
verbal
picking
witnessed
Intellectual
noodle
coinc
Cur
Dasan
Uber
fitness
execute
spir
enforced
##retion
##arship
Orient
faithful
Obama
Cyber
Pink
Santa
erupted
##TA
##adang
cried
delivers
propag
courts
70th
Ulleung
requirement
reinforce
coupons
possession
vitamin
unconstitution
plunged
diox
horm
tum
angle
##loyees
##eseong
blame
conductor
139
Soft
burial
protective
editing
irrit
excavated
##ulsion
spectacular
Crime
cabb
Newspaper
Fi
fasc
##ourse
Style
##teen
insult
Liberation
camps
memorable
##nsic
evacuation
arrears
Benz
Ep
Ice
lump
##imi
chips
expires
elastic
performs
endure
devoted
prediction
rainfall
##opsy
sponsorship
Subway
Forestry
ignore
Age
DJ
Mae
Never
Taek
##lor
##esh
##soft
testified
Depending
Infant
1988
Moreover
latter
commentary
Geoje
Guri
##kok
##50
participates
activate
Hyang
presentations
disadvantaged
permits
bonus
naval
isolated
fiercely
Gam
Tun
jew
##orial
committing
disband
maturity
forefront
affects
spreads
predicting
indicator
Deliberative
Liverpool
Chicago
Aj
Large
Nae
Yul
mineral
revival
councils
wounds
clarify
blossoms
mushrooms
##lass
##esy
spokesperson
imperial
preserv
skilled
Yeongnam
Employees
calendar
Texas
Toy
dances
##br
##RE
##zone
theft
##stery
prox
##osh
Chicken
##astics
consumed
commercialized
balls
potato
counselors
guardians
probability
Trend
overlapping
chemicals
tuberculosis
Lady
vou
##pm
evenly
detached
sellers
tasting
guideline
counterpart
450
definition
2000s
Francisco
stagnant
Ukrain
dye
foul
starter
intr
roots
promises
Accordingly
##rians
ceramic
packing
psychiat
Participation
evacuated
obstacles
toilets
distinguish
occasions
Stephen
sovereignty
##mbudsman
headlines
deciding
carved
delete
playoff
gray
careers
Donghae
idle
chiefs
lecturers
Colomb
sponsor
fatal
struggled
laptop
mosqu
Eco
Ira
Pot
Sir
liaison
shrim
leather
contrad
repaired
description
Export
exhibited
accommodate
landsl
tissue
Ele
Rice
imb
ui
woon
##edy
##anche
varieties
seeks
practically
Brand
lacked
Empire
withdrew
doubts
disappearance
Using
wheelch
element
loses
oral
flour
defamation
dispose
Examination
dividing
volleyball
independently
correctly
petitioner
Portug
idols
obstacle
frustrated
Try
kne
tong
##otal
##unc
##uneration
priest
twenty
##angeum
cheers
excuse
boards
entirely
dermat
threshold
mold
##gwang
forcing
rely
inval
dragon
Namdaemun
quarterly
potatoes
maintains
##araoke
demonstrated
monopoly
Ae
Section
##fielder
##OT
##AM
##igers
##usive
inviting
carries
endless
refuted
refusal
owns
##restrial
##limited
answering
reconstruct
nephew
Gyu
Rose
gross
koo
lad
noon
##baek
##zed
tob
##heric
strive
revoked
streaming
presided
Poland
Communist
commentator
magnitude
sculptures
styles
apparently
02
lined
nic
takers
##rent
beverages
medication
trauma
Front
Cloud
Studio
tightening
tobacco
bars
wise
##myeon
reliability
synt
opera
crazy
briqu
moments
recovering
Daniel
worsen
kilometer
stipulates
inflammation
tablet
Iraq
Docu
Niss
ahn
duration
fighters
tables
inh
##idal
promulg
Reading
70s
Note
knock
demonstrate
moistur
simultaneous
06
View
hui
imit
pose
amate
##ortunate
Arirang
destinations
democratization
Buddhism
boundary
coins
Castle
aptitude
Give
Hor
tear
soap
intake
promotions
Advert
marathon
licenses
cataly
unfairly
Sookmyung
Treatment
perpetrator
Nobel
horizont
Cinema
Mic
Vide
dup
lately
##ka
exert
fract
Still
varies
advise
landl
candlelight
painter
Armed
hitter
Prosecution
##umni
Laos
tremend
Fan
Get
Sl
##joo
crab
confisc
openly
classification
Namwon
220
farmer
homosexual
baggage
##shore
giant
##enza
Mobis
IMF
Against
Challenge
observers
##itudes
Unified
deployment
nationality
stealing
1992
accessories
Didn
borrowing
Legislation
GTX
07
DNA
##inates
##edes
##rot
##uter
##oche
consortium
este
##lets
extensive
internally
##byon
honored
Yeonsu
contests
shouting
pedestrians
licensing
disbursement
density
Messi
Cel
KIA
Mass
Tes
##akge
weird
centering
triple
attacking
##shi
missionaries
refrigerator
odds
dioxide
Nissan
Nav
Tim
ky
oct
##nyeong
##wing
##osaur
investigators
promotes
retr
administrator
contacting
cleaned
stationed
argues
##fecture
splend
chairmen
sparked
ripple
Ken
Kar
Kol
##doms
##eren
##ulus
consequ
orange
enl
unchang
attachment
discom
##minent
freight
contacts
websites
Gojong
Cooper
narrowed
nursery
intermediate
Cambodia
AT
naked
##ateness
neither
annex
collision
march
dreamed
memorandum
masterpiec
Championships
Architect
hardships
axis
airplane
unt
##the
##quer
infinite
condol
divisions
unfortunate
Colon
exclusion
cosmetic
absolutely
Occ
Pun
hinder
lanes
sided
someday
##ept
##fly
apple
relocated
flaw
parallel
Dongtan
landmark
arrives
dolls
exceptional
revenge
deteriorated
incorporated
##gorith
DS
##pen
##bled
##GB
##ceans
##utch
##emark
chamber
plates
appet
Minimum
desires
arises
phishing
respiratory
trapped
Disney
nerves
Wom
bamboo
sons
vast
##onia
##oro
##isy
##ige
plot
##quis
##ologist
188
verifying
texts
Applic
drops
Bangkok
boosting
melody
favored
legitimate
mileage
mild
##hr
##AP
ash
resurre
discretion
autopsy
boiled
summar
employer
acquiring
TVs
juniors
##bokki
bargaining
##akgeolli
gest
##ples
##song
prog
shifted
grilled
profession
radar
##coal
kingdom
Biennale
desperately
intervene
euros
Emir
Peter
kyo
##made
insect
Coffee
radon
illustr
Academic
pharmac
Excell
dictators
housewives
Full
rect
wat
##mate
chairs
placing
myth
equally
speaks
quantities
Maduro
dismantling
Opp
cock
jam
shirts
Income
##cheok
costume
delaying
profitable
towns
biased
arbitration
circumstantial
eradicate
falsely
mour
##best
##sam
##chun
##see
##abul
##abouts
##actively
spin
drastic
##abling
Truth
Action
detained
##othing
applicable
pursuit
volc
Sciences
shipments
##hoe
instructed
preemptive
esteem
End
Nature
Qatar
dent
##ints
##amine
guides
depressed
transfers
Cheil
Works
shoe
portfol
intentional
albums
explanations
stabbed
innocence
overturn
dat
fool
plaza
##licit
##ancers
##avan
empathy
genu
auth
pressing
originated
elders
mentioning
challenged
medicines
Taxi
Independent
mentoring
inherited
miscon
vertical
conferences
Counseling
Entrustment
progressed
Bears
Gae
mad
sour
##chung
existed
org
##luding
regain
Shimb
retro
humanity
educate
educated
Paik
governors
initiated
terrestrial
terrorist
Scholarship
bonuses
sne
toler
crus
carc
Metro
advoc
authorization
sexy
exhibits
Kangwon
automotive
proceedings
piled
possess
gardens
imbal
Shimbun
KCC
Nine
deeper
##°C
##ila
undermin
roast
commute
noble
Shop
analyzes
greeted
quarterf
Grade
counteratt
boyc
1987
reinvest
depicted
Saemangeum
Factory
bored
vicious
##ras
probe
##seeing
##acon
une
proving
terminate
Chel
defending
organizers
controls
##ycling
ballistic
Funds
incorrect
Hungary
Juvenile
Oriental
Dou
Fun
Fem
Jam
inhab
##elve
##ppers
unlimited
Sungky
Electronic
identifying
surgical
forecasts
scientists
odor
Assistant
gro
sake
zoo
##lamation
##harm
##anic
ink
##oli
##una
##ungh
interrog
whereabouts
cleans
meaningless
staffs
uncond
narr
Campaign
miracle
acquitted
Field
Kane
Mach
vo
yach
##name
inch
##oust
##lete
refusing
##ilitar
approaches
ceramics
normalize
literally
enhancement
pledged
comedian
Brother
Originally
Video
Chelsea
PR
Wal
##LO
##MP
mystery
drills
purification
Shall
villa
1919
arbitr
hazard
CP
Kor
lively
liability
##ania
toys
##asia
reit
##imacy
##irmed
##ours
provoc
assert
possibilities
appointments
reforming
2025
surely
catches
silence
360
paths
kidney
Blockchain
adolescents
discomfort
Fu
KC
Pub
cam
##gies
##TC
##utable
unilateral
##ailing
drill
signals
Price
modification
gotten
missions
secretariat
granting
cooperating
seaweed
Er
sued
hae
##aba
indem
105
Online
preview
improper
Yongbyon
denuclearize
1991
sensitivity
ampl
Sud
sizes
##moon
algorith
##angled
establishes
defective
##rients
slaughter
basically
240
geographical
appropriateness
duplic
Tesla
Obs
Point
Way
##rise
##ca
##emia
incin
evangel
confession
assume
penet
handsome
cellphone
reunification
circumstance
exagger
motorcycle
cereb
04
Ahead
Ot
bom
karaoke
##tress
plain
enabling
Stan
instruction
##avity
surged
recognizing
involve
Economics
steam
##rane
wondered
accuracy
sprink
stalled
##teokbokki
Taegeukgi
Sindang
dictatorship
bump
##ingly
yours
grain
opponents
Being
lightly
sanitation
exporting
behaviors
novels
nutrients
quietly
galleries
retali
erected
unconstitutional
mm
rab
tut
##nament
##oved
##city
##woman
##NE
##icable
##away
participatory
remuneration
backed
paraly
modify
appliance
Taean
ultimately
sandw
derived
fantasy
discarded
Eff
Freed
Gog
ML
Sog
ry
torn
comic
scary
Parking
foregoing
trademark
applaud
lightning
councilors
365
sadness
climbed
altogether
disciples
slept
disagreement
greetings
Hawai
##avery
09
Eight
Hyeong
dense
dirty
##ias
##losure
##how
businessman
coat
emperor
specify
atmospheric
Samcheok
Country
discovering
athletic
destroying
Willi
shrinking
Facility
Wanna
elegant
tremendous
Back
Lu
tangible
##eong
##adon
shadow
##andering
enrol
outflow
filial
humidity
penetr
volunteering
crown
appreciated
Jobs
anticipation
thrill
KAIST
culpr
indiscrim
tvN
Sungkyunk
Ir
fo
ga
##GA
##ece
charter
##ussion
condem
230
centimeters
influenza
conditioners
digest
arguments
Commod
franchises
choreography
unchanged
Body
##IM
Chong
Seongsan
flexibility
cheerful
fortune
slee
Sungkyunkwan
DB
hambur
weren
##nut
##ettes
forc
##ims
purifier
Trip
loaded
##ebook
groundbreaking
Appraisal
fixing
Analysis
Related
disappointing
acknowledge
altitude
bleeding
Freedom
P2
Pain
aest
ik
##lation
##idency
reaff
rebu
##imir
indeed
twe
Yangsan
combat
Meet
conditioning
Emperor
privile
bookstores
licensed
distinctive
jewel
Civic
Sent
Writ
##kin
##iments
##uten
##obo
Deb
parental
consulted
Sangju
swift
1990
Gunpo
conscience
nickname
Sul
dub
hect
ric
bears
##opes
partly
Shilla
Atl
1000
interviewed
jeon
Chilgok
Emirates
Gij
Wel
awa
ads
charcoal
##ounced
generous
indicate
graduating
strikes
subcontractors
extinguished
majored
occasional
disinfect
suffers
embroiled
remittance
amateur
##bestos
##abulary
Gaya
Mur
laser
panc
penc
sink
##ala
shapes
orchestra
admin
##orses
desp
mattress
appointing
councilor
delays
Photo
counselor
Gimje
Imm
Multi
ankle
Roman
Sach
dynasty
icon
##ronom
##orus
##itures
toy
cough
##ansori
##aeul
organizer
links
discounted
sisterhood
colleague
subcontractor
experimental
navigation
Eagles
subsequent
cabbage
Et
cogn
yang
##boret
interfer
Guk
participant
##wardship
insects
114
airports
slope
##ounge
entrusting
translate
Nongak
ventilation
Assistance
Dangjin
Vladimir
Violence
sympathize
QR
tanks
##bye
##wr
offenders
sends
expressly
routine
##celain
Inspector
valuables
Technical
hesitate
ambulance
Bing
Ong
Que
cod
##oe
endanger
necessarily
continent
temples
guns
Yeongjong
registering
Highway
2023
occupy
minimal
departed
gateway
boundaries
bullpen
Logistics
Behind
SAT
Tang
arou
fares
fears
##after
##arians
exotic
##opia
##uber
restoring
insol
insist
majoring
supervisory
Superv
immigrant
jumping
delinquent
Mercedes
P2P
BC
SOC
ly
wings
##iat
##fe
##RS
##onn
useless
proves
##gia
poly
Method
slavery
pasta
Month
Commander
fermented
stere
deliberately
accelerating
CGV
shrimp
organs
KF
Mental
ST
Sport
fiber
nail
tape
##ucement
##iti
##asi
incub
implements
##reek
audio
expands
deny
##aneous
breathe
sticker
vocabulary
Macron
Athlet
tire
tide
##GO
##adae
sushi
indef
blamed
downs
civilization
Prefecture
##otto
terr
earthquakes
psychology
hunting
extinguish
Restaur
congressman
Several
dissemination
semifinals
Cooperatives
datab
##SA
Chile
courier
writings
packs
Boat
belonged
accompanying
accelerated
Kumgang
Liu
chapter
Coalition
Din
Fans
Fuk
Has
Key
##ker
##ashing
##ivating
##iffer
evol
repository
specializes
protesters
globalization
banner
fundamentally
reckless
newlyweds
##unciation
counterattack
DPR
Fox
IN
Rome
queen
##ridge
##brid
##PC
##arest
allies
regards
##weight
activation
specially
advancing
Expl
skept
graders
creditors
uncle
addresses
appealing
ambig
rolling
kidna
conglomerate
tactics
Pakistan
bubble
Heart
kyum
quarterfinals
PE
S10
rated
##mine
##hon
prince
officet
quiz
metab
revising
justifiable
collided
statues
shortages
musician
resolutions
##haul
warmth
cattle
Gimcheon
advisors
creators
killer
dumping
Patriots
imprison
plaque
Cry
Ewha
Making
Nep
merc
rall
thunder
plunge
indication
scrap
handmade
offshore
Reporter
influx
survived
manipulated
##asket
bakery
authentication
Bob
laug
##stal
##igen
conform
washed
heal
Prop
fireworks
Hanok
Assemblyman
inspired
accidentally
Interp
beneficiary
entertainers
rubber
Doctor
genuine
forcibly
Cub
Hur
##iro
##eled
##ulnori
elite
beforehand
##prints
1989
Lastly
terrorism
##icapped
fertil
interfere
retaliatory
Cook
Hit
bes
pod
stern
sinking
##ipper
##fu
##will
##LL
##owing
helm
##oken
exploring
protects
professionalism
glimp
poorly
verdict
symposium
kiln
disappointment
hunger
pioneer
Eung
lid
coff
serial
posters
186
divul
reinstate
merchand
distributor
Hub
MV
Nar
Waste
jet
lag
lips
##wi
##RC
##opus
impract
headache
##oggi
inducement
brut
restroom
announcer
obstruction
Dongnae
joints
circular
Place
portable
Contract
Pyeongyang
millimeters
prohibition
describe
Customers
Woods
Elderly
laughed
BB
Near
WS
##yon
inade
algae
Progress
teaches
Minh
bracket
Artificial
designing
formulated
limiting
speculative
sidewalk
Jinhae
recommends
Saen
clearance
Reconciliation
Color
surroundings
mistaken
mountainous
Goldman
KORA
trailer
Semiconduct
Microsoft
postponement
Kyeong
mit
maps
nan
##arium
##icians
artworks
##prising
formulation
Forms
engaging
sensation
modernization
horror
##hett
precedent
petrochemical
##hansanseong
glimpse
Equ
kit
masters
pond
tender
tube
yi
##urated
##igration
recons
Proced
consecut
disposed
moderate
installments
Sao
Regard
industrialization
respects
cleaners
ensuring
satisfactory
fingerprint
disturbance
Shortly
LCD
DPRK
Eum
Ven
codes
##inator
##emption
alter
##apy
##gio
counted
quar
Mars
dominate
politically
Areas
Hui
drunken
Carl
ethical
convicted
calmly
summary
microp
Selection
Colombia
Bot
wit
##li
##liness
##HO
##antern
agon
overhaul
Manufact
laboratory
thirds
accepts
Wonder
starred
monitors
supervising
Drama
drying
Hangul
IPO
Friends
Khash
ABC
Bost
hoo
##eon
##PO
proactively
orth
##acc
intending
Comb
##redict
beloved
##uki
insisting
treas
treasure
finalize
seriousness
inspecting
dinosaur
Hangang
fingers
wrapping
patriot
chefs
Suspic
consecutively
theat
asbestos
alumni
trace
contracted
quantitative
wealthy
consolation
nurturing
blanket
disagree
mushroom
tribute
Hosted
Kolon
KORAIL
Fall
gases
nit
vowed
##eun
##atal
contam
underde
addict
gene
classic
spotted
Personal
fluent
casting
affecting
splendid
Regardless
Glo
Oceans
SE
##ati
##ivost
scal
smugg
acute
Hannam
Records
wastewater
integrate
inspectors
Install
accumulate
expenditures
1960s
attributable
wounded
isolation
Vladivost
bankruptcy
Vladivostok
Mah
tale
##ko
##ghan
seas
module
Healing
Jungn
servers
negatively
failures
flowed
threaten
Neighb
leaks
constructing
recipe
seminars
Congressman
ultrafine
observations
rotation
Petro
porcelain
culprit
Sachs
endangered
imprisoned
Boston
SS
Tire
##eliness
leagues
drum
annoy
grants
necessities
classrooms
123
##jeom
breach
Legal
##visors
##ritis
titles
intensify
dressing
macro
revelation
Hawaii
underdeveloped
Nurs
Tigers
dizz
fres
rope
tips
##inyl
##otechnology
##acious
enroll
justices
187
kindly
exercised
magazines
Farmers
rushing
Saemaeul
grievance
Response
Dar
Dol
Dome
Kyong
nerve
##hops
##ads
sprou
intact
##ancell
##indo
broth
homeowners
internship
consume
Platform
George
fasting
widening
optical
thanked
reminis
stimulate
subcontracting
1945
Consultative
Treaty
renovation
constituency
hinted
rampant
subtitles
catalyst
portfolio
##boretum
Sav
thirst
abusive
Minjoo
Gugak
refined
establishments
protagon
violin
candidacy
Namhae
270
Clan
uncover
criticisms
1980
repairing
Participatory
resistant
rolled
Belgian
perpetrators
dissatisfaction
Saenuri
Moh
Sri
jazz
##liest
disgu
Train
Actual
Jungang
kindness
Kingdoms
tracks
connections
outsour
vendors
Khashoggi
BBC
Fre
Wy
##keeping
##lights
##map
##iser
stup
chick
##rys
disruption
##ruit
Unless
transit
letting
Attached
discharging
clinics
Captain
overlap
Payment
livelihoods
Beautiful
harmonious
Pit
hallyu
horses
pear
##kel
##rum
##fill
##dot
##inental
##alous
##itects
##asts
##outheastern
powered
hardware
shortened
1993
attempting
archives
mentors
sandbox
Telecommun
stamps
supermarket
plummet
Occup
authors
Iron
Lank
OK
wha
##istle
wheels
plag
##overy
##acking
midfielder
shorten
dealers
distant
premise
silk
330
symptom
harassed
accommodations
Consumers
KOT
dismantlement
drainage
constraints
Jul
Jord
Meng
fet
rents
tsun
##daughter
##stick
reop
inclusive
overc
##aven
matched
Activ
imminent
presidency
Resource
##ebr
280
celadon
honorable
cafeter
eliminating
recycled
deducted
inferior
survivors
spirits
contradict
cad
vague
wishing
##bec
##itages
##endum
developments
followers
corn
salty
Dongguk
readjustment
drawings
appearances
dreaming
Daech
precise
Biolog
optimistic
absorb
sightseeing
strawberry
##otype
consolidated
kilograms
GP
Snow
ombudsman
##RI
##aman
sail
posing
wrist
solic
##ividual
involves
sunny
merely
Employ
Twenty
##marble
Subcom
laughing
entrepreneurship
altar
absorbed
migr
##written
wrinkles
invalid
enrolled
Gijang
Gur
Ire
cm
dock
##rich
##ole
##bn
stiff
##ageum
universe
belts
slim
urgency
injected
wears
limitation
Netmarble
shrink
Disclosure
rupt
blossom
flocked
globally
incomes
Punishment
reiterated
Cop
Gospel
Member
##40
thesis
##ician
##iracy
compact
spite
appell
charism
releases
raided
careg
maternity
merged
KEB
Konkuk
marginal
souvenirs
webtoon
misconduct
Bib
SD
##hea
assemb
enlight
##ika
underwear
assass
Ordinances
damaging
consultant
##forcing
Autumn
Hwas
ignoring
disappearing
Gongju
pulling
ribs
repatriation
Bak
Qing
Yout
##gol
##omas
##aga
counting
directing
brid
##grav
earliest
wars
##ovascular
conflicting
massac
Everland
collaborate
Silver
fortunate
dragged
surname
anonymous
ceremonies
composer
Basket
CV
Days
Mug
fountain
##got
##gwan
##omic
##mentary
adverse
repairs
scra
coating
Individual
Princip
Phys
diary
Naju
displaying
widened
inaugural
charms
Giants
subcommittees
Accounts
ascert
Semiconductor
Hig
Hap
RBI
firing
wrest
##lace
##elv
mayors
teamwork
Artists
Bush
Dev
summits
banning
Forensic
Scient
Box
Boeing
Uljin
Families
categor
##ictionary
northwest
relaxation
beliefs
##hua
daero
engraved
arbitrarily
Restaurant
merchandise
reminiscent
Cher
Case
ES
Iv
Lions
Pope
mil
##iological
##sed
##esome
##oting
##ffet
proviso
##xture
concessions
genius
runway
contributes
secretaries
radioactive
evacuate
Jordan
bik
gum
wip
##aan
degr
##agic
handing
controversies
generating
catcher
venues
typhoons
unpredict
##RAM
supplemented
diversified
Ceramic
battles
Commodity
database
ambiguous
WSJ
Crown
Croat
Located
Tam
Taking
myeong
##owers
Chap
butt
manus
evolution
undermine
##minton
blessing
revocation
informing
artwork
##ajang
exhibit
Geon
Android
merits
radical
martyr
manipulating
Import
##itorious
Model
farewell
Silicon
trophy
appropriately
convinced
tongue
boycott
rallies
beside
Kev
Mam
Pusan
Round
Wild
duck
##ista
envelop
betray
Metal
handicapped
formulating
baseman
regulate
footed
polling
Projects
dropping
accumulation
##AND
optimized
dismantle
pillars
inducing
interpreter
cognitive
Biologics
BL
Banks
Dad
G20
Naz
currencies
lin
##mul
##hum
##hony
##ders
##aria
##rov
##sey
##berries
unite
bride
Conduct
collects
insurers
##ospace
enjoyable
workshops
combust
tasty
##CTU
Opin
inserted
Greece
puppy
token
Bit
MD
Sad
Vir
cemetery
##rance
throat
##ficiency
nearest
Chon
perm
##oster
106
earners
placement
referendum
111
##cribed
courtesy
devast
Smith
Austria
reinforced
elimination
crackdowns
diversify
preceding
reminded
tentative
mechanism
Louis
Ireland
Iksan
JY
Roy
jack
lent
ow
pier
chasing
disrupted
holders
soundness
subscribe
cancelled
Secondary
roughly
disinf
yoga
Tunnel
Portugal
Nepal
KOTRA
Dutch
MS
aer
drow
vinyl
##mans
##ayageum
##chu
shy
##essim
spy
dispar
median
assail
125
landed
pressured
subsidization
curve
yeop
mutually
hurried
folding
pharmacy
petroleum
distributors
soybean
Ak
Bell
Kil
##gments
##hill
bearing
##season
##anded
wherever
cultivated
Afterwards
260
tasted
irres
Afghan
occasionally
Anniversary
recreation
Nakdonggang
overheated
##obbies
##theless
carcin
Kevin
AD
NY
Sit
cure
rides
rude
##whe
##MO
inroads
##elim
##istice
##osi
incred
invis
elabor
signboards
proposing
Immedi
oneself
Status
vividly
grabbed
ryul
impracticable
KMA
Swe
jar
tense
vested
yun
saus
mankind
decent
##issance
visually
108
salmon
formerly
patience
laborers
commissioning
birthplace
disappears
heightened
possessed
encountered
Severance
loyalty
BI
KCTU
Neg
Rhee
yes
##vard
##mel
friction
apples
attitudes
underwater
instance
Existing
qualifying
steal
##uthan
precip
octopus
Basketball
Bey
Cemetery
Jay
bree
##PM
##esis
frustration
notebook
Seom
unb
publications
syn
striving
50th
##entially
Someone
utilizes
cookies
blacklist
mounted
arranging
beaten
habitat
Nonsan
misunderstand
abstract
perceived
Ukraine
contaminated
Ach
RE
gast
pian
sulf
tends
##iter
##asis
##uryeo
##ocating
##actus
##ockey
Institutions
hotter
Monument
permanently
McD
immersion
Vehicle
horizontal
Jing
Luc
mural
pic
sch
wandering
##geration
noting
##ichi
incidence
manners
##rup
Gyeongin
scream
copper
deploy
Alib
Ganghwa
contractors
capitalization
320
freshmen
Flor
Okin
pronunciation
Guangzhou
##uminum
inadequate
##ancellor
PS
milit
tightly
##belt
##sim
##otalk
##igade
complement
compilation
transmitted
airing
enjoys
roadmap
Namhansanseong
stays
Yester
Investors
preferences
Daelim
1986
minorities
exaggeration
Materials
overturned
Goguryeo
Bene
Mut
TW
Turn
Voice
federation
##uctions
##ena
##ola
##osm
defer
suppression
commend
smiles
heritages
nobody
slip
environmentally
Advisor
142
Institution
burnt
transported
birthrate
sensibility
surviving
##assadors
rumored
castle
praying
laying
Egyptian
pillar
##trion
Celltrion
vicinity
treasurer
Yesterday
Las
MB
Tan
bent
##rac
##sil
##erator
thirty
##rock
##urry
##orms
decree
communist
streak
streams
Reserv
##ounce
##phal
Jangchung
Text
cracks
amendments
unexpectedly
garlic
loose
click
pesticides
despair
cafeteria
Eug
LTE
Monst
Send
hell
##coin
##FP
##oning
##aron
##osung
##ffe
twent
##ructures
planes
sometime
swall
standardized
Conservation
meritorious
Syrian
bureaucr
envy
Visitors
##occup
Ajou
unpredictable
invisible
Brown
Citing
joke
lantern
pessim
##case
##inic
##versible
storing
##oped
saves
203
subtle
Unmun
smok
poses
leftover
hybrid
Cheongw
declaring
brokers
balloon
cracked
accompany
literacy
municipalities
stickers
aggressively
intervened
strokes
legitimacy
##ogenic
supermarkets
portrayed
appellate
Aer
Aid
Liga
liable
##py
shining
cousin
overflow
decoration
flames
meth
corrupt
presiding
skirt
predictions
diarr
enshr
translator
##monary
sacred
PCs
demonstrating
sparking
Performing
allergic
knees
appetite
Kyun
Nik
slog
##gate
##dog
exporters
interference
productive
justification
##ussions
insign
rapper
Prison
defended
Marvel
hopeful
gatherings
blueprint
booming
extinguishing
consignee
Strong
CI
Por
euthan
hobbies
oy
sar
southeastern
til
##VD
##thritis
##arthen
expelled
unatt
Produc
##acker
grape
Conn
opposes
dominance
144
##ashi
Course
citizenship
internationally
evaluates
repeating
occupational
motive
Imjin
Swiss
timet
Opera
teenage
layout
Channel
##ennis
immersed
Automobile
preserving
reconstructed
Coup
Dor
Gon
Um
aunt
damp
dancers
les
sir
tires
##VE
##atical
plug
##aewon
clim
wanting
##obi
terminals
refuses
innovate
ecology
flags
minimizing
tightened
prayed
layers
Incident
shelters
proxy
Architecture
##writing
Greek
Jen
Petition
borders
##earches
##oping
##ortheastern
##usc
##abok
tragic
relocate
##awi
##eps
feast
bug
strip
##raits
founders
Really
define
solely
##aido
Schools
hostile
##ycl
##scape
Haen
prisoners
conviction
Guidelines
incineration
##manship
slogans
Cases
Harb
Mour
Mathe
Sanche
##iere
##bour
##bank
##fare
##onies
##inho
Seor
##ellion
clue
noisy
retain
retreat
advent
competence
importing
offender
runners
145
understands
freel
hosts
embark
ultimate
darkness
Sanitation
rocket
embarrassing
Certification
##writer
humidifier
siblings
imbalance
##utenant
##ifferent
diarrhea
Die
OS
Task
UE
doo
duk
gyeong
gaps
makgeolli
tents
turb
##tal
##unct
chorus
Stop
102
breed
alleys
academies
Joseph
Including
thickness
vibration
bibimbap
Eumseong
chickens
Mathem
Eric
HR
Pow
Sor
Ung
##gly
##inational
##store
##ibo
spoon
leased
Asah
lasts
grapes
corps
dispers
implementer
loading
Resp
consuming
hyo
glory
eyel
Barun
divorced
fluctuations
Sanders
Missionary
##archy
expedition
chewy
briquettes
Gum
VI
lighter
ray
##ectives
##anthem
safer
clash
charity
countryside
electro
136
Level
sunrise
Safe
assistants
symbolizes
cruel
substant
magnific
Secretariat
anchor
torture
Soulik
durability
Ferry
##rysanthem
Az
Birth
Jir
Jindo
NAS
Nothing
NGO
Wir
aids
kg
motto
##nal
sufficiency
##istically
compound
differs
smiled
performer
Jeff
popul
statistical
automation
diagnose
dependence
cardiovascular
Initially
Henry
Telecommunications
DRAM
Ka
aerial
cens
cinema
lounge
vain
##ann
alright
triang
Artist
salon
Geom
devise
protectionism
objectives
granddaughter
cryptocurrencies
satisfying
burns
chatting
entrepreneur
stakeholders
cease
liquidation
fertility
Muslims
Mattis
discontinued
Immigration
Wyver
AC
Keep
Saint
ace
saints
enforce
Gyeongbu
particles
lasting
Hey
104
Shrine
prevalent
assuming
retrial
valued
Hongdae
morale
sword
principals
senses
Palest
Monk
Swedish
Multicultural
Philharm
weaknesses
Maintenance
voucher
Michel
##quisite
Female
exaggerated
Immediately
Bud
Hal
ausp
emit
slic
##losed
##har
##DC
##stop
whistle
##sole
teens
whereas
##oryang
Princess
prepares
valuation
preparatory
escaping
Treasure
vitalization
1950
habitual
stimulus
Players
credits
sacrificed
##stein
elasticity
resurrection
voiced
tsunami
Alibaba
Florida
Nation
Sak
jury
pills
wield
##mok
##esl
clips
charming
sheets
hardest
sentencing
supervisors
denom
Congrat
surpassing
##sequently
enemies
seawater
Welcome
disinfection
Wyverns
Kelly
LO
SO
Say
foss
nest
serm
##rh
##anted
implic
imposes
Thomas
minors
Shandong
insists
Peak
questionable
deadlock
Prepar
encourages
##hole
prompting
unrel
sewing
aggregate
bridges
Okinawa
Cheongwadae
Aqu
Lion
Tomb
Wil
kwan
##star
##eto
stakes
resent
Seob
intim
twelve
curtain
rainwater
Years
guaranteeing
##oxide
ridiculous
observatory
divulge
breeze
toug
aluminum
aggrav
accountants
recommending
##intend
Haeng
supervised
##ushima
precision
robber
Operating
jealous
Anyway
dissolution
striking
throne
Kyobo
##ippers
rituals
astronom
Eleven
jewelry
coding
Subcommittee
unattended
timetable
Fees
Rap
kyeom
bee
shade
spoken
advers
Itaewon
encom
clay
underg
brightly
Contemporary
renting
backgrounds
Steven
orientation
Philippine
forecasted
Martin
describes
privately
rebounds
tactical
honeymoon
neglecting
TOE
Cathedral
propaganda
dermatitis
interrogation
encompass
Eur
IU
OST
Veg
dw
hem
lact
racing
##eu
##telling
##pung
shine
##ancement
##ensed
##ishi
submar
monks
specialization
Accel
Suseong
waterproof
phrases
Universal
Observ
Ast
B2
DC
Dairy
Honey
Nag
fur
null
rye
##comm
tract
agrees
outline
sciences
flesh
differential
speculated
chairpersons
unfortunately
linkage
lunchtime
borrowers
crowds
complications
Israeli
obliged
loneliness
ancestral
conspiracy
##rosion
pencil
migratory
Eugene
Philharmonic
Cru
Joy
Shen
Tick
diving
et
##arn
##isely
reper
##terp
trim
locally
163
Household
##neum
captures
bulk
Munich
smells
Merit
Outdoor
1910
substituted
hatred
Refuge
cerebral
Savings
Born
Byeon
Bulg
Cz
Cancer
Nok
Rot
goo
malf
rites
##kong
##uing
##vency
##ville
##Tech
##24
##esan
Think
monster
grains
entries
foundations
##ova
reader
seasoned
CES
Player
Musk
mixture
Impact
Auditor
reorganize
Secondly
ruined
coexistence
condolences
unconditionally
Installation
enlighten
UEFA
Kal
Pent
WTO
Yan
Yecheon
vs
##iju
##lore
##hong
##happ
##ithium
chaired
adhes
afterward
Alph
signatures
Manila
Compet
Soccer
Contents
Sihwa
recipes
perspectives
blows
prolif
Qualcomm
Detailed
fortunately
Countermeasure
##otypes
Euljiro
Procurement
flavors
landlord
IF
Ple
eui
tug
##sticks
##idation
plus
thereon
Gyeongui
ambit
scold
concurrently
possibly
broch
midfield
groundwater
ideological
recruits
Conflic
phenomena
males
faulty
envoys
Avengers
Nevertheless
##ilitarized
ambitious
Clear
Morgan
Tar
##giving
##iology
##mentation
shifting
heg
deaf
sof
coerc
103
infrast
Chest
113
caps
137
selfish
##orns
badly
Hallow
deadly
80s
Auto
Hwacheon
troubled
Steve
musicals
stabilizing
750
Panmunjeom
netizen
boasted
Friendship
Islam
IBK
Taip
weighing
pesticide
diameter
wheelchair
McDonald
DH
Istan
LS
Pers
cush
kwang
mere
rin
##NP
sticks
##izoph
yearly
##ificant
somehow
redemption
USB
accountant
formula
denying
multinational
acceptable
antic
Healthy
confirms
ministerial
Tea
occupants
mixing
alcoholic
Goryeong
Incre
obstruct
absorption
observing
Type
leaning
keywords
Hydro
moisturizing
Czech
##izophren
Tal
earthen
perhaps
aroma
Shi
115
auditing
Specialized
priorit
prosecuted
disclosing
melted
Bundesl
Return
Sarah
frustrating
##ijuana
Jik
KS
Mung
Pig
Rum
Rental
##bling
##UN
##ani
##anim
hairst
##abi
spa
weaker
Actors
Alley
Alright
inscription
hearted
hourly
singles
##ashk
Cheongdam
Finding
banquet
attendant
Godeok
virtue
##ventions
bullying
ambassadors
coordinating
actresses
feeding
awesome
migrant
accusations
discontent
hamper
Walking
editorial
##moil
Denmark
persistent
Baby
Asahi
infrastructures
Bundesliga
Lind
Pack
eon
fist
hier
navy
races
##cut
##RT
##orious
tofu
princess
impair
crane
##hness
##juk
##comings
curved
utmost
Recomm
Sonata
bitcoin
eleph
elsewhere
pads
escalating
dubbed
ascertain
twenties
Fle
Juk
Mn
Roll
Total
esp
gear
hello
nano
pave
##aus
##BM
##esame
neuro
##epis
brakes
mainland
salvation
careless
135
shortcomings
circulating
steamed
distinction
Joe
irr
preca
delegates
murdered
printer
Merkel
##ielding
patriotic
perfection
alleviate
carpet
Specifically
Toyota
magnificent
Halloween
Belt
DP
Hay
Lect
MA
Milk
Paper
fights
rays
##nival
##test
##vas
##achel
undergr
overs
drives
genes
facto
raid
pastoral
Resc
165
reads
morality
Regulatory
banners
premature
occupant
Musical
Kakaotalk
Saturdays
Flag
angel
sustainability
mobilization
touches
dumplings
turmoil
delinquency
torrent
hectares
Activities
Sweet
precipitation
schizophren
BO
Bern
DA
Ming
cin
dairy
##pan
##fires
##inger
thread
Inje
reson
leasing
medi
000㎡
compliment
energet
ballot
compensated
beautifully
forestry
premiere
radius
knit
mentor
mobilizing
Dalseong
Hungarian
KDB
Bun
Mont
blo
dug
fancy
lenses
##arang
##ols
Ther
##izers
##usters
Production
##ixed
Namdong
##chery
Conserv
Contrary
1985
departing
Serge
Entreprene
Keun
Geochang
##burgh
stretch
Between
alienated
Colonial
Daechi
TWICE
Diplom
Fish
Gift
cows
jelly
##gogi
##hye
##esth
##chae
inclusion
abrupt
##suit
Already
sket
happier
175
injuring
barley
Supporting
Baekd
Twins
Marketing
Innovative
Bioepis
Microdot
unsold
constituencies
switched
Croatia
Match
bol
diver
fax
northeastern
anest
##oco
spinal
evolved
unw
Comed
quasi
confess
waterfall
postings
humor
contracting
Polish
parenting
distort
memorize
precisely
Neung
Intangible
announcements
prayers
decorate
deteriorating
recycl
diversification
misunderstood
Balanced
Symphony
Current
Wu
bang
bite
cater
gloom
mang
tidal
reass
wasted
atopic
Chair
guiding
flies
meticulous
signaling
Rewards
judgments
hyang
greed
homeland
Chiefs
edited
harassing
casino
stadiums
thrilling
Legend
outsiders
migration
legendary
Progressive
Suspicions
bou
gau
tab
tiger
zomb
##rated
##hered
##anium
##identified
##ollen
##ampoo
setback
##ukbang
inscribed
Jungbu
Donghak
patch
##guard
##inson
pushes
mindset
ballet
concentrating
Markets
grandson
##dominal
Wouldn
defenders
Volks
vitalize
honestly
MLB
Painting
Congratulations
MICE
Sik
WHO
emitted
fib
##eff
##tlement
##yroid
##wagen
##LS
reiss
##child
##essation
incl
overwork
##oseon
herbal
gravity
backup
learners
Yangyang
badminton
obsessed
rewarded
Filip
Career
firefighter
scratch
hesitation
Charl
LPGA
soybeans
butterfly
protagonist
FO
Tian
Van
bans
sway
##TT
##arc
##ctic
##osn
Charter
seated
##ignment
specialties
competency
Yeok
warship
128
slower
basics
Chungmu
holy
##insa
gradual
entrusts
personalities
females
concentrations
exceptions
holdings
renamed
Syndrome
countered
##athetic
assessments
crosswalk
bulgogi
converting
550
quotation
Overall
southwestern
magnetic
abnormalities
doubtful
Victor
Yemeni
reaffirmed
massacre
Beyond
Mathematics
Taipei
Volkswagen
Bah
Pyo
cord
mouse
##uan
theoret
##initely
whale
wheat
Sevent
deck
robe
highs
heroes
157
cooperated
skip
programming
multilateral
screenings
Genesis
adjustments
radish
skyrock
joyful
associate
Criticism
comparable
infections
Boys
cardiac
unfolded
incomplete
lamps
disqualification
barrels
##lasses
Documentary
consequences
masterpiece
DSR
##unghwa
EBS
Own
PGA
Rog
Sony
effic
gam
northeast
##XQ
##arted
chop
reprim
Gyeongbok
monoxide
##obe
##text
boiling
checkup
Death
consultants
40th
210
Tourist
estimation
squee
pitched
Instruct
sticking
sealed
puzz
Consulting
gonna
antibi
bombs
Vegas
Istanbul
Fishing
bats
dictionary
vom
##rill
##hap
##atism
thigh
##utin
##amins
##ainted
unsp
confusing
landfill
batters
Record
fastball
homer
canceling
dedication
creator
unusually
hanok
novelist
cherished
adaptation
Magic
compatible
Jewish
theatrical
Dun
Myeon
Sound
Uplus
germ
hed
sesame
##rage
##US
##artum
disk
unanim
workout
backward
qualities
purple
##ashimi
Cannes
traveler
debates
Regeneration
Climate
autonomously
persim
Childhood
motif
agendas
Strategic
##continental
fulfilled
stimulating
postpartum
affordable
Passenger
bowls
accomplished
adequate
delighted
homosexuality
watches
Reservoir
Core
Enc
Goche
Mas
Yuk
southeast
tiles
##bes
##TI
##itations
##eches
stub
incons
abdominal
upr
##ologists
##herent
Hongik
178
stewardship
Meal
deepened
publishers
##attoo
baked
##ennial
Quest
stretching
Xiaomi
tumor
combustion
EG
Fig
Kory
NBA
Yuri
lists
##hist
##real
chilly
recon
appra
##okk
##ava
185
urine
dealer
TVXQ
objections
publisher
ambition
deteriorate
##ymnastics
Restr
Restoration
irreversible
ETF
indemnity
Ott
incubation
pianist
EN
Eom
Rookie
Vinc
groom
gymnasium
jang
oath
vest
theology
##inately
##estone
shifts
##aksan
expulsion
prone
spine
unidentified
underw
highways
arising
socks
Rever
tempt
Shinil
hottest
physics
Businesses
restricting
scenic
captivated
abolishing
ultr
stabilized
imagined
definite
Johnson
Crab
Philip
Hiro
fragrance
induced
disruptions
mudfl
nitrogen
assailant
picnic
IR
Tiger
Uru
cessation
masc
##tail
##itories
sauna
disgr
brisk
smallest
Anna
financially
valve
Juan
travels
Region
##inton
Sunshine
collectively
automated
competitor
staring
Hotsp
bias
reactor
struggles
Smartphone
unlaw
Homeplus
Classic
palm
Venezuelan
neutrality
inflammatory
perfume
Watching
Seeing
pornography
playoffs
volcanic
yacht
##terpret
Bom
EV
Mechan
OP
Off
Pict
Pier
Sas
Tashk
bust
cuc
cabin
dough
dirt
fandom
gifted
hid
wished
##pens
stain
withstand
##estically
chase
deeds
##acked
disconn
everybody
backs
inflic
electron
considerably
agreeing
1982
celebrates
##umbling
##ventus
assignments
Implement
unveiling
prohibits
cement
deriv
railroads
summons
Celebr
outsourcing
uprising
Tashkent
NAT
Sant
Soy
eats
eternal
##walks
##olding
afterwards
aftereff
imperson
addressed
handles
powerhouse
watermel
postseason
##useong
traditions
Abu
harbor
Popular
dissolved
tenth
Brook
accomplice
narrative
sandwich
Mugunghwa
undergone
Rescue
energetic
underwent
Jj
Sn
Woman
jaw
##iates
##try
##bin
##KP
##Wh
##erable
##rey
ants
##apor
##agi
memo
##raham
insight
Daejin
announces
Read
Success
obsc
154
Manpower
##guay
props
filmmakers
Juventus
Cheonggy
debuted
Orion
degen
submits
sunshine
collections
progressing
Republicans
motel
Danyang
Basically
overwhelmed
Kyodo
Premium
McC
interaction
nutritional
relieving
extracted
Running
Daedong
hamburger
plagiar
Higher
Powell
Observatory
gloomy
Uruguay
Cow
Rio
pains
##ke
##11
##win
##zer
##IR
##LA
stele
##illery
console
unhapp
societies
adventure
insulation
127
minded
commercialize
restraint
cathedral
##married
1979
landscaping
deceived
binding
supplementation
habitually
savory
stimulates
Friendly
residual
dissatisfied
freshness
Cherry
torrential
CF
Cut
Cart
Cond
Ford
Gwon
tattoo
##rics
##jil
theories
Chancellor
resusc
enabled
soar
unfor
workload
planet
somebody
flame
Myong
162
shortest
swollen
calories
managerial
##doors
selective
Baekseok
crystal
bidder
enthusiastically
Patients
CNBC
testimonies
consolidation
authenticity
mosquit
promulgation
DAS
Lux
kook
ov
##his
##hran
##GI
##stru
##cha
stair
##empl
Stage
cheek
bless
assists
nowhere
refurb
126
conditional
speeches
analyst
specifying
separating
curb
offerings
responds
Smile
##books
objectively
Goheung
motivated
cracking
constitute
prohibit
decorations
proposer
stylish
towel
pollutant
disadvantageous
Boryeong
switching
hazardous
applauded
##esthouse
CB
Eon
Lad
Sher
bru
lithium
pneum
##jun
##oned
##enos
chased
chrysanthem
compass
##apa
amen
decomp
prevailing
openings
forehead
totaled
circulated
232
capitalism
automakers
Tehran
1984
##naire
collapsing
microorgan
traditionally
##PGA
bombing
Visiting
vitamins
Aviation
overheating
1592
Supervising
fertilizer
Bron
Fisher
Half
Purch
Som
gorge
ozone
rip
##OA
##aru
fork
##istent
##udo
##uding
composite
resides
cann
contamination
consulate
indo
syner
themed
buzz
arrog
flut
affirm
excre
backp
Daeg
Chef
differentiation
humble
examines
turnout
Jane
illegality
identical
curling
barbec
settling
counterfe
Subject
fluid
regrets
wildfires
Modi
Books
surprisingly
demolished
simplified
Sentosa
patriotism
scalp
hurriedly
Comedian
stubborn
Mand
Masters
Troup
gaming
vending
##tw
##asions
arena
regained
Stars
showdown
goodbye
takeover
Alt
metals
##raising
nationalism
Dongbu
116
Manch
domestically
##gujeong
146
sooner
Geor
swine
groundwork
attendants
mails
retirees
judgement
teenager
discriminated
Anton
Yeongdeok
persuaded
playgrounds
ventures
rigid
neatly
landslide
kidnapped
agonizing
indoors
Bed
Bow
Craft
Dow
Nipp
SN
eve
fame
poul
pairs
##ez
##vals
##ouch
##omy
rearr
##igo
seize
##lical
unify
repet
Guam
##supp
Acting
blessed
reviving
handwritten
capita
severance
transporting
Measure
worthy
pole
Foods
Parad
hydro
Protest
forgive
necklace
folded
Integration
ruins
yields
Sarang
boldly
blogs
adequ
reinstatement
Virgin
NYT
Gocheok
AW
Mov
Nang
Pear
UV
melt
ol
wart
yul
##12
##EE
stam
stably
shampoo
Seoh
adul
scars
donating
##ukemia
117
Dementia
inspiration
Advis
pressuring
shortening
Cheongsong
Within
benefited
adopting
defeating
collaborated
retailer
Muan
Apart
arbitrary
flocking
renovated
resembles
vendor
Merchants
MVP
wrestling
Wirye
efficacy
Questions
Nancy
Rout
biod
##zhe
onion
##ulator
##acter
span
enlist
pretext
upside
##ropriation
transmit
ours
##tched
oppression
##ussels
Hyosung
specification
contribut
storytelling
deviation
strengthens
merge
builds
bedroom
##employment
ecosystems
enthusiasts
initiatives
sequence
Milan
Idol
KDI
ATM
ashamed
insolvency
##iatric
##elvet
insignificant
Dark
Deep
NA
Range
Sleep
Ts
bund
cub
rode
##bot
##MR
##econom
##imney
hepat
orch
##iki
herald
##iseong
arthritis
Gangjin
paras
Cheor
##eepers
expectancy
candy
trendy
questionnaire
Halla
fathers
integrating
Ult
Samseong
refunds
Deliver
architects
Subsequently
armistice
Audi
congratulate
mortuary
Farming
clarified
blooming
desserts
volatile
Norway
minerals
indiscriminately
metabolic
irrespon
Accelerator
Hotspur
Cheonggyecheon
Dd
Ey
Fif
Mul
Uprising
dot
ion
miles
rings
##tage
##m2
##hwan
##dies
##ndol
##igate
##unal
##ecting
mega
##ults
spacious
segment
##odhis
Problem
attent
Choong
insured
Chem
Maria
basin
134
launches
executing
Arm
##agnetic
Defence
commemorating
Thanksgiving
Smartphones
bribe
Similar
sufficiently
sacrifices
disseminate
porridge
molec
levied
Daesung
Associations
SCMP
algorithm
Methodist
##bnb
categorized
##wheat
##intendents
enlightenment
Pleasant
##odhisatt
Gene
Luck
Nick
Ryan
rust
roses
tack
##lip
##yt
##pot
##isen
##ilage
##imming
bypass
worris
outdoors
localization
delic
arson
##incare
hereafter
blunt
##amphet
Conven
Primer
Justin
negotiated
curry
Andrew
Meg
risky
##jiang
monitored
diagnost
rebellion
rewarding
sponsors
Valent
Value
discrimin
Sinchon
flexibly
Harvard
proudly
awaken
straws
##ographed
adapted
Merchant
Brothers
paralyzed
Jungnang
worrisome
Dear
Dhab
Gab
Mits
Nut
Tay
pile
##aments
##fund
##OM
##leg
incense
allocate
interrupted
clues
hered
planners
donor
Shoot
revol
visitor
administrations
Hanm
Enjoy
marijuana
menstru
Brun
Screen
Firstly
verbally
volunteered
520
420
deficits
dietary
Apgujeong
Histor
Renew
Customer
strawberries
Literary
Settlement
bubbles
tokens
Practice
SHIN
Publish
Chapter
methamphet
enshrined
Reverend
Ace
Bug
Erd
ERA
Pu
Pel
Search
Unc
aver
sashimi
vine
##iative
##hui
##edia
thaw
##acill
clan
scand
##encia
memb
107
brick
surchar
Indoor
Develop
tales
Airbnb
denial
Euro
Sangam
Recovery
tenure
digits
hurting
catalog
Judging
robust
wildfire
Salman
cartoons
hacked
territorial
entertainer
##iskey
Ulleungdo
tolerance
inhabit
manuscript
sofa
excrement
Cam
Rub
Rising
aug
##dium
##era
##esc
##alm
##vering
##iko
twisted
diff
deprec
brac
brake
Jean
Dongchang
preside
168
141
Soong
researching
Clinton
objectors
##emorrh
calcium
occupations
versions
Relief
landscapes
depicting
confidentiality
Francis
levy
Guidance
Associated
Woongjin
landslides
smuggling
enrollment
plummeted
sulfur
Entrepreneurs
theoretical
NATO
unforget
poultry
EC
Fast
Xin
rite
##yles
##bone
##woon
toured
##igible
##sees
##usa
relying
discour
##uchin
183
##pleasant
Arboretum
Bloss
personalized
290
footst
Yeonpyeong
sweating
misapp
Imjing
capturing
narrowing
Advancement
rivals
reproduced
gloves
masse
Mobility
repatri
Womad
Korail
aesthetic
reconsider
Producer
submarine
Dhabi
5m
Gh
Ide
JP
cables
fills
gwan
injust
##ouver
##eche
##igrap
frank
sailing
##ansom
unmarried
Guide
Shar
advances
checkups
Yeongdo
##ursed
Consulate
trainer
constitutes
##afting
franchisees
Miryang
yueng
Advertising
confiscated
mourning
Afghanistan
tilted
abruptly
##arcation
unlawful
mosquitoes
Troupe
Cheorwon
unforgettable
Crist
Jok
Liqu
Math
Present
Vanc
Word
hyeong
##watch
##ecca
beaches
conve
alph
heir
chimney
deuk
abo
unreg
instinct
Heon
buffet
projectile
Anim
Suseo
classmates
Spokesperson
133
contraction
148
Democratization
clearing
influences
accessed
geop
mayoral
manipulate
1973
inquire
southwest
pipeline
Argentine
towels
sedan
feminism
embrace
Yaksu
William
quarrel
scandals
Vancouver
VC
bay
biz
hills
hockey
piety
tak
##za
##ulin
analog
heung
Inform
perc
overly
subur
factional
Alone
longing
Governments
Daehan
Daejang
cares
socialist
156
protr
modules
Myoung
alongside
trafficking
Recre
sensational
squid
computing
communicated
belongings
succeeds
illum
tighten
dormitories
patriots
Additional
##baatar
randomly
scorching
Honorary
addictive
sausage
Anc
Cas
Eve
Nic
Name
Noryang
Rivers
Sis
Tenc
Yuseong
fences
rash
sigh
##missions
##enact
##alued
inexp
##isers
##uria
##mph
preoccup
##inement
intercept
Share
refining
158
offset
completes
warmer
122
fundraising
differentiate
grader
Jeongok
swelling
wrongdo
interpretations
epic
emails
Geumjeong
380
pretending
collaborative
heavier
primarily
labeling
molest
implant
tablets
graphics
Nihon
Costa
hormones
Trends
psychiatric
Bingbing
##igenous
Nursing
charisma
elaborate
Haenam
Mnuchin
schizophrenia
Publishing
Creat
Lin
Nom
cyl
cactus
hats
hemorrh
ugly
##yen
##arction
Theme
##esty
frames
reconc
unpleasant
repent
##istrate
brus
Ali
##ewarm
##ukewarm
insiders
filters
budgeting
##ometric
Ensemble
burger
awarding
##nea
Holiday
650
Giheung
reunions
garner
harmonized
turtle
Victims
##patient
hormone
Combined
Scientific
Adviser
##funding
AFC
Bee
CPR
Eup
Ground
Hundred
Hokk
Pence
Tob
rod
##17
##elect
onions
##ulmonary
shipper
notices
trap
##ryong
##awon
invests
##roph
True
transcript
##owner
cultivating
Requ
Gwangsan
Orange
vacations
Classy
Supply
##iquefied
Islands
greenbelt
diplomat
unveil
1965
abandonment
cartilage
amazed
incorporation
lungs
Guangdong
margins
Dispute
Richard
duplicate
thriller
brutal
Manufacturing
envelope
malfunction
DHL
chopsticks
unhappy
Primera
aboard
NAND
Poor
Vill
Wook
coke
fairs
nap
nons
##eur
##fits
##OU
##held
admir
invaded
##ancies
Mind
109
strap
Alzhe
openness
155
infarction
##hereum
extends
skincare
164
Yangjae
turnar
engagement
Recycling
Ulaan
##arbon
vegetarian
relaxing
Deoksu
Politics
tuna
Crimes
stipulate
harvested
lipstick
reimbursement
knocked
Sogang
Pitts
##bourne
Hokkaido
Camer
Cris
Fant
KL
Kit
lukewarm
pound
pounds
##lay
##inos
Theological
##ador
sphere
invented
##ogens
clashes
Stay
cozy
brigade
##arming
fiel
obviously
121
writes
practition
keys
Seongsu
Healthcare
Single
trainee
##evity
sleepy
eyeb
Intel
##eroom
overlapped
mortality
monkey
stemming
##senal
duo
mattresses
microphone
stupid
smokers
TOEIC
proliferation
amenities
stamina
Mitsub
Tencent
AFP
ESS
Fold
Jac
Jones
Kans
Mask
emitting
lied
lazy
sins
##gust
##bae
##inn
##enth
stove
##hers
compelling
enrich
##soon
##grim
endosc
procession
considerate
domain
distract
keyboard
individuality
distress
congested
Foreigners
Going
briefed
deductions
panic
##holding
viral
Governance
harmonize
Melbourne
tissues
microw
convincing
disqualified
Excellent
Ethereum
CVID
hegemony
recyclable
resuscitation
Alzheimer
Ulaanbaatar
Goh
Ginseng
Nike
pse
sore
wary
##oen
##hones
##anical
##ede
##ecurity
##stairs
proficiency
##aku
chili
meg
indigenous
subjected
commissions
##suk
arc
bra
activating
revisions
booklet
pursues
generals
subjective
meanings
centuries
Electro
##iplinary
correlation
grandchild
sunglasses
340
bios
welding
stresses
Taxes
Myeongdong
subscriber
Creating
showcased
overlooked
synthetic
Advertise
cleansing
provocations
disinfectant
administered
Neighbor
auspices
wielded
EGR
microorganisms
methamphetamine
Chen
Eo
Eye
Jon
rained
##mens
beats
##unes
##iva
##uded
##udae
unear
indie
##aval
strang
crem
Rehabilitation
Chungm
143
roadside
23th
Registration
Medal
Yeongcheon
scheme
Buyeo
wallets
digging
##from
Childcare
Common
Sundays
Opening
Capella
mobilize
illnesses
exploitation
deprived
Procedure
scrapped
Route
SHINee
Tteokbokki
Woon
bunk
cared
mun
##gl
##rates
##sk
##err
##atized
##orad
inability
rehe
reenact
succ
shines
notifying
cans
spends
spouses
manif
##sibility
Trail
Alm
##named
##cked
customary
Demilitarized
candles
brew
Begin
Gener
breakup
assaults
warranty
Humanities
Swimming
unlisted
underv
harvesting
Niels
Geumgangsan
grievances
flavored
privileges
Jenny
fossil
gauge
hepatitis
##acillus
Dust
Down
DVD
Normally
Ox
Ray
WP
cro
font
hook
jj
knot
nails
pard
wander
##natal
##IF
##25
##izai
truce
abide
leukemia
ador
disgust
perme
Thinking
##ogy
##oka
betting
deserve
goodwill
flurry
stretched
118
Speed
landowners
Finland
devotion
sweeping
Contrib
Wait
grandp
Samulnori
freshman
wildlife
aspir
##ennium
Haman
shelf
Osong
fleeing
steril
wanna
Olive
compatibility
plaintiffs
surnamed
ladder
sneakers
Meetings
officetel
Cuba
Youtube
Coupang
Diego
scolded
Bahrain
footsteps
turnaround
Pittsburgh
Fresh
Hond
OC
Poll
SF
Zhang
pung
yards
##auses
##uet
##MI
##strok
anth
##opulmonary
Chris
sodium
intertw
Strait
##onds
Activity
Always
justified
paramed
extinction
superintendents
Brussels
Blood
cleanliness
Cluster
premier
correcting
1983
Canadians
commentators
Acqu
quote
trot
##izzard
nuts
1953
uploading
guilt
##ylum
intellectuals
dimin
religions
instantly
blankets
retrie
Excellence
reinvestigation
Carlos
overcame
commendations
cushion
Koryo
barbecue
Mitsubishi
2TV
Cit
NE
Pos
baek
gaze
##cl
##bar
##BL
##chul
##irates
stems
##seen
explicit
##rous
Seowon
disl
interrupt
screw
supporter
studios
addicted
discourse
Yeol
preschool
##ugong
illusion
anthem
respecting
Mediation
encry
Empress
settings
measurements
AIDS
epit
creatures
reinforcing
jeans
reacted
39th
subscribed
overlaps
rebounded
Gaeseong
Preservation
Yonhap
fingerprints
downloaded
stalls
Jackson
hypert
vicarious
scorer
Daedeok
intestinal
uneasy
sleeves
Lanka
Mutual
NASA
hedge
fielder
Nielsen
API
Cosmet
Find
fest
gal
wives
yup
##iac
##ls
##PL
##inted
tol
whiskey
##antly
sporad
Thirty
guesthouse
submer
endured
retaining
Refer
124
Exports
electrom
formally
##ometer
149
Compl
hitters
Leisure
destiny
##oids
edit
indexes
1970
ignor
fitting
Knowing
accelerator
locker
pioneering
Sudden
penetration
marginalized
Physical
resentment
undergraduate
gorgeous
injustice
Dy
FDA
Luk
Number
Wando
futures
gently
gaz
hated
nod
piv
pansori
##tuce
##uh
##isp
unison
helper
oversupp
meditation
deserv
empath
teammates
blast
blown
##amps
corners
Suz
153
infilt
subscriptions
liters
167
voltage
Nambu
Ariz
innovations
greets
divisional
diplomats
freshwater
remainder
Valencia
1975
melodies
impressions
Doesn
boasting
ICBM
III
Calligraph
densely
gesture
pharmacies
Double
podium
coffin
alteration
disguised
Mungyeong
hairstyle
Hidden
Mnet
Sut
SBA
Tony
pec
##EL
inmates
cho
##ardo
peach
Aside
supplements
Ministers
artillery
corrid
##uchi
lets
popularization
Regular
deepen
embed
logical
Daem
copying
Firef
Intro
Carol
tournaments
perceptions
Honest
1948
garage
scenarios
Material
buckwheat
undertaken
lingering
gestures
penetrate
discriminatory
augmented
microwave
BJ
Brew
Boseong
Haz
Sab
dancer
lac
muc
##aire
##pook
##ilton
##olas
reex
##urred
##geori
##opran
##oca
dean
##apest
##ourmet
registr
##ancheon
strife
discord
Trib
##ampo
##tex
caffe
introduct
Marc
audited
qualitative
nearing
176
buys
accidental
pictorial
debit
voter
groundless
Peru
celebratory
reinterpret
coordinator
Television
arrangements
Loan
escalated
Poet
Certific
unfolds
Ecological
loos
disbanded
Naval
advocacy
undermined
rebuilt
caregivers
Principal
RBIs
Negot
Budapest
geopolit
Cool
Lump
Peters
Sale
Zhe
uter
yon
##FK
##eda
##rob
##legal
##leys
##ighed
asylum
anec
unused
##igned
##uala
helmet
##ressing
sciss
mines
visibility
needle
arrow
brighter
donors
retention
vein
##riors
Demonst
Kyungpook
progresses
boarded
##iquette
timer
symbols
Imperial
crowdfunding
minimized
attorneys
transparently
Hankook
blew
Utilization
roasted
indefinitely
Fukushima
orthod
incredible
##achelor
##historic
Implementation
Ghosn
Arizona
DD
Eating
Kuala
Link
OTT
Yok
cured
dys
lion
ty
##iad
##ienced
##yi
##ithumb
##aks
hasty
maneu
##ags
##ensively
interval
overp
cheating
surre
Shipping
##riages
184
##jeok
blockb
Tournament
advisers
##flies
1978
Simon
Mueller
fulfilling
cheapest
congratulations
Confucius
Partnership
1392
dyeing
synthes
Application
Workshop
provocative
richer
Occupational
Employers
implications
grandparents
Furn
Icel
Opt
Silk
Tennis
danced
eel
nost
oven
sid
tile
tumb
tteokbokki
##NC
inhib
touring
##utory
fright
ornament
resil
resisted
##ipher
##loying
suppressed
Wei
herb
charger
showers
planner
##iana
##atican
loop
Admir
166
songwriter
clearer
closes
distur
standardization
pilots
Hwag
##ynec
copied
prett
doubles
boosted
inquired
conveyor
dismantled
Confucianism
diligence
sequentially
irritation
dentist
crushing
tutoring
Colorado
solicitation
astronomical
Auditorium
enlistment
diagnostic
hereditary
deserves
Bat
Bithumb
Hug
Lia
Mans
Pic
Vatican
centr
fec
fuss
##key
##XX
##vin
##dated
##dling
##80
##reated
thyroid
proactive
suited
##emade
notch
expose
204
relating
interlock
mediate
##ologically
Jeung
calligrap
Reven
colder
##ustomed
Gwangdeok
132
##guards
169
147
60th
Illegal
homeroom
telecom
normalized
assisted
strategically
Netiz
floods
battlefield
Users
abnormality
outsk
Something
intervening
souls
Nobody
spraying
conceal
reservoirs
bucket
##gyeonggung
Nippon
Convenience
Valentine
Lumpur
Iceland
Gach
Nig
Vien
bun
fu
fiction
rhin
wal
wires
##arre
whit
fries
resorts
researched
abuses
Sex
accusing
hadn
longevity
waterway
simulation
traders
##ossa
Jeongseon
Buenos
comforting
campaigning
occupying
Imag
sticky
PayP
describing
Banpo
overwhelmingly
fluctuation
deliberations
graphic
Matthew
Homeland
durable
##hetti
uncovered
Monster
pessimistic
overflowing
Pororo
euthanasia
Thermal
Crisis
Aires
Bird
Fab
HD
Lie
Sust
Save
TA
gul
kings
render
##TR
toast
##omin
##station
Inters
trunk
spo
Seattle
clusters
subways
herbs
quad
acoust
continually
##rah
##ismic
151
waterfront
Marathon
lettuce
seasoning
179
Songjeong
distortion
embank
pitches
Expansion
Commendation
Panama
coordinated
melting
KEF
sprayed
Glass
rigging
Lawyers
resemble
transplantation
Circulation
Rodong
jeonse
unbel
irresponsible
Mail
mu
pap
##tang
##sle
##mons
##PP
inherent
##icter
overload
Mina
Whatever
remem
populated
entertaining
##otherapy
prototype
statutory
Institutes
Arsenal
legacy
seemingly
symbolism
YouTuber
patented
paddies
partnerships
Naturally
columns
chapel
irrele
mosquito
crushed
Stanford
Poong
Saj
baking
frog
gwang
sits
waving
##jan
##inting
reum
shield
expire
abd
##aghetti
##ikes
accustomed
registers
##ishop
feud
archery
brink
stricter
##ternally
reasonably
Prim
Admission
photographed
treats
Libya
disappro
accumulating
Barack
1963
scientist
diversifying
frost
gods
Robot
laptops
ceremonial
skiing
dolmens
Womans
fetus
Aerospace
unrelated
cinem
Blossom
bizarre
percussion
##oenix
##oprano
Houst
Lighth
Rank
Velvet
##ilder
rearing
##oreum
##uli
chores
leverage
Separ
interc
upright
chargers
brewing
##ortune
hospitality
understandable
joins
Jeongjo
cleanup
accessing
Ill
advertised
Organizing
miserable
Population
Reduction
Leading
##ECH
migrants
incorporate
Charles
Skin
Retail
Consultation
Older
vocalist
##drops
refrigerators
racial
sovereign
vigil
ladies
dwelling
Alpha
Seventeen
##odhisattva
unregistered
oversupply
surrender
Vienna
irrelevant
Houston
Ahyeon
Buck
Himal
Poc
fut
jokes
ost
sings
##uments
##HD
##iners
forb
stal
compile
resuming
empt
acne
profound
##iential
hoe
Transit
Disasters
procedural
punitive
Griff
Syng
Organized
Elli
##flower
symbolizing
quoting
defendants
layoff
Surv
vaccines
confronted
updates
Testament
stamped
upgrading
scattering
NHK
halt
cardiopulmonary
Horse
REIT
sermon
undervalued
PayPal
Jag
Made
Pul
dull
li
sank
##pes
##edong
inoc
##ela
##otech
##igently
shab
fry
##overs
seals
peers
newcom
##inkgo
grill
##oya
slopes
Spot
##atorium
preparedness
rainbow
packaged
generational
##ventional
objectivity
Baekdu
##apsa
##shim
northward
hunt
##INK
vaccinated
pools
Keizai
Damage
congressional
descendant
Kono
Investigations
epidemic
Jirisan
appraised
Myongji
counterfeit
repetitive
Cristiano
##uetooth
Furniture
Fern
Final
ILO
Nice
Pansori
Talent
cy
eB
rug
##ml
##di
##olve
##ayment
##igan
inches
recycle
contempl
soot
finishes
supportive
##icked
restructure
Accident
obey
suspending
postal
volumes
Leon
Scott
cutlet
Organic
petitioners
computerized
unfairness
fostered
pedestal
trails
##rocery
webtoons
sibling
wheelchairs
evolving
JYP
impairment
Fleet
Yeoksam
plagiarism
Coway
grandchildren
embedded
Admiral
Intersection
Easter
Hab
Od
grocery
lax
rene
ridge
ransom
##aissance
##OD
##St
inacc
##igi
##osom
deform
##astral
agony
Thousand
crush
deploying
delisting
concurrent
revamp
restrooms
Dean
happiest
rulings
Jiang
beginners
Transfer
pollack
ratios
bedding
Systems
Starfield
##hetics
assemblyman
Historic
IPTV
ranges
Kyoto
pillow
loudly
detecting
ample
privilege
annoying
Mourinho
Sanchez
Conservative
Manchuria
Ddabok
intertwined
electromagnetic
Cities
Ess
Hearing
IV
Jur
Kavan
Nad
Pine
RO
Wet
bachelor
dwell
echo
gates
lemon
##rition
##uz
##vo
##meter
##RL
##asive
##igor
Cham
spilled
replic
clauses
Committees
##ectionery
blaming
Exit
dominating
138
Sangdo
stationery
Clinic
creditor
priorities
learns
sympathetic
Appro
Iranians
withdrawing
widen
Yuan
hyeok
Throughout
370
Goods
470
superiority
maximized
unconventional
Kuwa
interface
Leadership
epidemiological
amplified
skepticism
Harbor
antibiotics
vomiting
rehears
Bid
Gung
citation
pater
##offic
##rend
##eca
##olith
hey
complementary
soaked
outdated
Asians
headaches
syrup
highlights
##ilders
stronghold
equip
shortstop
Bluetooth
Gods
centralized
threatens
Singaporean
bottled
Delhi
430
extinguishers
removes
##people
mathematical
Ethi
implies
compatri
acquittal
Hydrogen
masterpieces
rebuild
adversely
Movie
wartime
##economic
membrane
Recreation
Petersburg
CH
Hell
Were
hind
pist
##mad
##hard
##die
##LC
##WC
##enic
##inge
thumb
##olta
##adan
##iri
staging
frying
spear
repaid
Unjeong
housework
Gangjeong
174
finalists
debris
trustees
greedy
wearable
verse
Rece
comforted
Guns
catast
cooler
comprise
quantum
listeners
Grandmother
1972
confidently
Rele
prints
journalism
1950s
highlighting
comparative
Chiang
Detention
Earthqu
Reporting
decentralized
residency
racism
newborns
revelations
fascinated
skeptical
Proposal
sketch
aftereffects
adequacy
Imjingak
outskirts
Cosm
GPS
Kyr
Lar
Pagoda
Ry
mug
##itational
##asa
beam
stun
comics
shocks
healed
orph
Gyeongsan
Mini
##ksa
##manuel
Track
config
defected
129
likelihood
Computer
enjoyment
denies
swearing
tomatoes
Andy
##beat
edible
crossroads
silently
archae
dryer
sweetness
Martial
850
Outside
visuals
Melon
##qualified
Walker
choreographer
evidentiary
motorcycles
Avenue
enlar
rectang
##ranean
foam
devastated
Respiratory
mediator
inconsistent
Delivery
conveying
Noryangjin
Hundreds
Chungmuro
geopolitical
G7
Lang
Lock
Maur
Solution
pix
##gam
##mes
##Hz
toe
reset
##licensed
evid
##ogan
drib
arisen
##angement
grip
Active
restart
classify
defines
Internal
qualify
superiors
deliberative
billi
devote
similarities
acquis
injunction
Yorkers
snowfall
Paraly
pathogenic
debtor
northwestern
##azaar
exemptions
Surg
conveys
ineff
dispatching
1905
remodeled
yogurt
algorithms
lymph
Crypt
Situation
precautions
Shooting
Pelosi
submerged
scissors
renegot
BOK
Cad
Draw
Kan
Kash
Mis
RM
kios
ming
mok
tang
##nuri
##hun
##jok
rever
strol
##ulous
conquer
shik
resale
abduction
206
##odong
peer
intervals
financed
Weibo
desks
##ologies
factions
assumption
designates
corp
##arms
experiential
##othermal
imaging
reasoning
Busanjin
turnover
behave
Arctic
watchkeeping
Banking
tomato
crispy
Wonsan
raped
academics
impacts
embod
Pyeonghwa
essays
fundamentals
Mokdong
demonstrates
optimism
strikers
championships
crews
warehouses
fabricated
Additionally
preemptively
gardening
Jews
Infantry
spinning
indefinite
sprouts
Achieve
Palestin
coercion
Recommendation
Bronze
Antonio
inexpensive
Beef
##electric
Nigeria
Bic
Bye
Boss
Hambur
Mick
Ped
sorts
searches
##gong
##rays
##pose
##zhen
##osures
rech
##agan
seating
unrest
##inees
upt
visas
gran
economical
earphones
assisting
##reta
handwriting
Suga
standby
healthier
typically
pictured
Taebaek
sixt
mergers
2024
technicians
##hyl
##flu
Statue
roller
subordinates
stimulated
grandmothers
Detective
Gallup
eradication
Kukmin
concealed
LCK
indispens
Williams
digestive
lyric
thirsty
assassination
milestone
elephant
Gyeongbokgung
pneumonia
Suzuki
nostal
acoustic
Bung
Dur
Dank
JSA
Mig
Ngu
Racing
Und
Want
dangers
jams
kr
ondol
##rae
##rings
##card
##face
##hma
##war
##wind
##zale
##atsu
reemployment
prere
provocation
##adeok
underlying
##aviol
crises
Jeok
##eryong
autograph
continental
Daeb
periodically
Offices
offenses
respons
amounting
victories
painters
##heads
Contin
Grace
Teen
excludes
suitability
assessing
secretion
Hero
silicon
##amba
Speaking
constructor
440
inaugurated
Memory
Patent
unreal
hometowns
oxide
Semin
delinquents
ribbon
torch
puppet
etiquette
swayed
Sasang
watermelon
Neighborhood
lacquer
Certificate
ED
Era
FM
Gaesong
Mol
Toss
Taste
Wiz
Wars
cit
gust
pup
##tong
##EA
##irical
chin
compounds
tram
pean
Ask
##erman
monuments
beta
sheep
empower
stranger
##letion
Daeung
##aji
##ovolta
sentiments
lowers
##ommon
Demand
readily
maternal
Brain
Jangheung
portraits
shipbu
Understanding
Judges
Famous
reinst
Greenland
collaborating
sustained
##adesh
Break
rolls
abundance
Nonhyeon
affectionate
surgeon
sterilization
launder
riverside
Invossa
Juveniles
vigor
photographers
flaws
Atlantic
BBQ
Barunmirae
robbery
Pentagon
Conflicts
averaged
Suddenly
Netizens
acquisitions
Paralymp
Bear
Bog
Dest
Hard
IZ
Kn
NEC
Tib
bip
cage
faded
nets
tanger
##yup
##pal
##asants
##ecified
shark
##uda
##action
spell
reclamation
seismic
republic
strangers
##ouncing
graves
informs
insur
##gyz
Prix
warfare
Jongro
uranium
Landscape
Hwanghae
Influ
Hwi
concludes
Esther
Sinmun
kicking
examinees
melts
vaccinations
labels
spectrum
Banwol
prosperous
Righteous
Annual
reproduction
Certified
chaotic
Ident
Initiative
Vehicles
Write
penetrated
Rapid
brochure
Rumors
Filipino
affirmative
Paradise
festive
heyday
Earthquake
Kyrgyz
indispensable
Ax
Fest
Gol
Kara
Ment
Male
Nas
Nara
Pork
Sib
hood
oint
pores
que
rage
ryeol
wig
##rak
##eded
##etion
##idates
##ivial
##arel
Seul
ensemble
unlicensed
intercontinental
indul
economist
Reun
USFK
Marina
testify
Servant
fullest
177
inflated
interviewing
distances
Recogn
speeds
slows
uncommon
tracked
SKY
Everybody
illustration
1976
surfing
bathing
feasible
dumped
admire
summarize
professionally
foolish
condemn
dinosaurs
tougher
hierarchy
unspecified
germs
unanimously
Acquisition
tolerate
caffeine
Kavanaugh
Burn
Gok
Ly
Moses
NS
Sold
Vent
coc
gymnastics
lobb
naming
norms
##nia
##pine
##FF
##EM
##eri
##edang
projected
##istocr
champions
##izab
Chart
uniqu
unoffic
unqualified
header
clashed
twins
strain
concession
lawn
Const
##ravel
Indians
skew
##geries
grading
banana
Sunny
##udeung
accessory
pots
cookie
correctional
chooses
communicates
1981
Hwaj
Hwarang
prisoner
biotechnology
1974
forecasting
1962
##agonal
reorganizing
Realmeter
Arabian
revolutionary
bowed
vocals
persuasion
Presiding
Boliv
pumpkin
subtitle
accomplishment
possesses
Venice
witty
Textile
Instructor
##grimage
paramedics
REITs
##ovoltaic
AA
KK
Sans
Sacheon
Yam
goss
iT
liquefied
tiny
##rival
##dess
##itated
##ilia
##urate
chains
subd
twist
##space
phased
remedy
Cheng
idi
extensively
humorous
Resolution
Amore
Yeonggwang
gloss
occupies
concluding
##shad
cooled
nominees
practicality
fifteen
ultras
##backs
1960
530
tentatively
escalate
feminist
suppressing
vouchers
landlords
Stanley
Opinion
embarked
reperc
anticancer
Generally
ineffective
iTunes
BEX
GB
Gan
Gran
Lut
Mak
PB
Pap
TS
pest
pie
sled
wipe
##rang
##ait
##uates
##len
##post
##foot
##don
##erion
##atown
bees
shaman
##heran
##osity
resided
disreg
unac
Produce
poles
aristocr
surgeries
Almost
dont
listens
131
##hesia
installs
controller
Beer
arresting
sweep
##lusions
Desert
Appoint
calculations
vacationers
conservatism
rebut
410
supplementing
styling
exceptionally
springs
diligent
vibrant
stagnation
Researchers
reimbursed
rabbit
officetels
deferred
##ackerel
Refugee
Increasing
irrational
Lecture
Ancient
BEXCO
8K
Cab
Hin
Hant
Kings
Num
Yas
footh
wired
##kill
##block
##si
##orum
##arin
##storm
externally
##oples
##duk
incap
abort
prehistoric
outing
invasions
regen
##aws
Comfort
Heaven
disposing
slush
bests
valleys
approves
Cheongn
sanct
hallway
utens
destruct
Ilbe
##cripts
builders
commanders
disciplined
tendencies
Bonghwa
leisurely
##roken
preceded
Collabor
summoning
bells
##usalem
tunnels
Jerusalem
Feel
aquarium
Contracts
SDI
##stroke
Kyrgyzstan
Dial
Gadeok
SI
VAR
lap
sul
tangled
##kk
##ww
##itives
comr
shaved
205
therein
unravel
indec
scroll
##ptic
decay
needy
stranded
refresh
explode
colony
Prices
##ugwan
##ronting
speculations
distributes
22th
Taejo
Preliminary
Buy
Daeche
Samyang
Worker
Taxation
magistrate
Madang
philosoph
inefficient
McG
heroine
##iculously
Labs
pornographic
carpooling
imperialism
retrieve
discretionary
summarized
KCGI
swiftly
awaited
rupture
dispersed
Cruise
earthenware
Hanmadang
Gachon
Sustain
embankment
Griffin
##aviolet
Bull
Cash
Diet
Fost
Gayageum
Hilton
Ip
Kye
Much
Pizza
Rat
Wat
erosion
lenders
mecca
##uity
##uance
##idd
sten
itiner
wasting
##geo
##ppy
##ifi
reclaimed
sewer
##odram
unint
overhead
receiver
confronting
blade
retained
152
traum
accountable
100m
criterion
Adam
broaden
Seongju
Mediter
educators
heartbreaking
restrained
addressing
Goesan
##hoven
erased
32nd
Miy
surfaced
ignition
angles
praising
sickness
pediatric
Designation
decorative
Candidates
taller
outlined
faults
negligent
functionality
fulfillment
Psych
Subsidy
hugged
interpreting
Alexander
fracture
indiscriminate
misunderstandings
oyster
B2B
synergies
Soongsil
practitioners
pivotal
unbeliev
Kuwait
Dankook
Auction
CU
Dys
Sosa
SDS
Touch
Virt
jets
kills
pests
##rick
##icating
##igament
hassle
spaghetti
reliant
##bert
polite
publicized
Guest
grief
surging
blend
Shared
lotion
param
Suhyup
##ception
Prayer
warn
interns
posthum
midday
Cohen
##apper
nonpro
Beet
tripled
reformation
Clark
badge
commercializing
barbed
ratify
enhances
SKT
medicinal
snowy
38th
golfers
Winners
##attan
Streng
unlock
KBS2
injecting
elevated
LoL
residences
hammer
Help
shells
promulgated
Gaepo
assembled
Nazi
OPEC
derivatives
Virginia
tackle
Sharp
Carolina
repercussions
CM
EOS
Harm
Less
Prap
Uiseong
VAT
Witness
gut
omn
##aul
##olis
##adle
##ections
##emate
##opo
chlor
exposing
deer
seam
peripher
apprais
##odor
upro
chartered
grid
detour
realistically
differed
Daew
Manh
slave
slaves
Gwangan
Soju
nightm
devised
Donation
portrays
reformed
closet
Discrim
generates
homemade
Ulju
Hyegyeonggung
geothermal
90s
incurable
Pompei
dialect
1968
acceleration
bowel
enacting
anticipate
thicker
equalizer
Macau
dumpling
acknowledging
##conn
dispositions
custod
evidential
bargain
Investigator
coincidence
confiscation
Opposition
dizziness
Seobu
bouquet
reprimand
mudflats
Fostering
1km
Ara
Cable
Foc
Gel
Nano
fond
gayageum
mukbang
uk
##eul
##soo
##mail
##Hyup
##aton
##itt
##idated
##ideration
choon
##ellation
relied
unload
Kimpo
cranes
strained
situated
advocated
mids
continuity
Reporters
171
Beat
ballad
heartb
advertisers
Marking
terrain
shoots
misuse
eleven
##yram
throws
deceiving
veterinary
forgetting
NongHyup
exhaustion
Wanju
manuals
Century
Balance
Remember
recklessly
aquatic
cocktail
indemn
aroused
Petroleum
Ladies
compassion
Beginning
Cosmetics
Calligraphy
whitening
stalemate
eBay
recharge
Seminar
ultrasound
Cube
Different
Kat
ber
samp
##kwang
##gil
##orse
##illary
##osit
##ipation
##arded
##agle
prelim
unic
interruption
oversees
substitution
anybody
proclaimed
builder
##ricane
downside
Deuk
182
Saeng
Changnyeong
Claim
availability
barista
warmly
virtues
Elizab
narc
artificially
Speech
fifty
1971
sluggishness
detergent
##ANG
##arrison
##ICA
transforming
660
viruses
stirred
Character
satellites
shameful
adapting
Mamam
Chonnam
aggravated
Shenzhen
Baekdusan
persimmon
Historical
KLPGA
biosim
Honestly
rendered
Mediterranean
prelimin
Elizabeth
Barb
Cou
Cream
Jugong
KI
ONE
Ton
bend
bids
dan
gel
gye
kits
lighth
solit
##eup
##ammed
shakes
ally
##aky
orbit
dislike
socio
continuation
##ribly
handic
handball
##ceptable
infield
External
slipp
ledgers
swear
beginner
Abd
Abuse
bankbook
births
influenc
balloons
persists
Peaceful
##naments
Wedding
Yuna
royalties
bridgehead
diligently
dragging
feminine
reimburse
deprivation
sandwic
censorship
hampered
disgrace
Pearl
Hazard
tyran
fuels
##olithic
Nguyen
CR
Jet
Ric
SOS
Tt
Very
cant
dated
furious
mice
mamm
oily
www
##kins
##rium
##eals
##taking
##hoot
##worth
prow
heater
heels
trivial
##undang
Convers
populations
Access
collagen
Suji
disputed
Newsis
Deuts
viewpoint
candle
Amy
Aram
Bez
Beop
riot
educating
bloody
functioning
Underground
avoidance
vulnerability
translating
connectivity
sponsoring
Carnival
Temper
Solar
recalls
frequented
Serb
Keum
incorporating
Visit
thinner
Pungmul
Magok
disburse
incompet
##MCA
evolve
##hettino
Preparation
degenerative
Geneva
garnered
corridor
blockbuster
disturbed
Liaoning
Pochettino
Elliott
Achievement
Tibet
utensils
Cy
Kant
Nood
Risk
S9
TE
Yomi
gay
gynec
junk
omission
pens
##iens
##years
inl
reel
##oren
atomic
##occo
tricks
prey
peoples
roaming
Altern
excuses
boots
solves
subsided
172
##atories
##working
subsidizing
Brian
appease
enclosed
##bean
lifes
technically
gathers
##ushu
rebels
destroys
1967
forgery
ruin
lifestyles
paradox
scarce
calligraphic
Ecology
conspired
##ioxid
Writing
rabbits
condemned
Tickets
inflicted
depreciation
pseud
Flight
Gob
Mb
Normal
Rh
Wow
azale
gig
lamb
ligament
ot
##paper
##bell
##IV
topping
##oland
##imity
stap
starters
haw
##uba
outfit
accuse
guarding
deletion
graft
releg
Atomic
181
tremb
Shinmun
photovoltaic
attractiveness
sidewalks
Amend
Changes
Blizzard
gluc
veranda
punch
displaced
35th
crosses
husbands
jungle
Neo
Entering
Chunhyang
fashioned
mouths
murdering
Danwon
worsens
fueling
fearing
fermentation
Nongshim